node {
  name: "global_step/Initializer/zeros"
  op: "Const"
  attr {
    key: "_class"
    value {
      list {
        s: "loc:@global_step"
      }
    }
  }
  attr {
    key: "_output_shapes"
    value {
      list {
        shape {
        }
      }
    }
  }
  attr {
    key: "dtype"
    value {
      type: DT_INT64
    }
  }
  attr {
    key: "value"
    value {
      tensor {
        dtype: DT_INT64
        tensor_shape {
        }
        int64_val: 0
      }
    }
  }
}
node {
  name: "global_step"
  op: "VariableV2"
  attr {
    key: "_class"
    value {
      list {
        s: "loc:@global_step"
      }
    }
  }
  attr {
    key: "_output_shapes"
    value {
      list {
        shape {
        }
      }
    }
  }
  attr {
    key: "container"
    value {
      s: ""
    }
  }
  attr {
    key: "dtype"
    value {
      type: DT_INT64
    }
  }
  attr {
    key: "shape"
    value {
      shape {
      }
    }
  }
  attr {
    key: "shared_name"
    value {
      s: ""
    }
  }
}
node {
  name: "global_step/Assign"
  op: "Assign"
  input: "global_step"
  input: "global_step/Initializer/zeros"
  attr {
    key: "T"
    value {
      type: DT_INT64
    }
  }
  attr {
    key: "_class"
    value {
      list {
        s: "loc:@global_step"
      }
    }
  }
  attr {
    key: "_output_shapes"
    value {
      list {
        shape {
        }
      }
    }
  }
  attr {
    key: "use_locking"
    value {
      b: true
    }
  }
  attr {
    key: "validate_shape"
    value {
      b: true
    }
  }
}
node {
  name: "global_step/read"
  op: "Identity"
  input: "global_step"
  attr {
    key: "T"
    value {
      type: DT_INT64
    }
  }
  attr {
    key: "_class"
    value {
      list {
        s: "loc:@global_step"
      }
    }
  }
  attr {
    key: "_output_shapes"
    value {
      list {
        shape {
        }
      }
    }
  }
}
node {
  name: "Const"
  op: "Const"
  attr {
    key: "_output_shapes"
    value {
      list {
        shape {
          dim {
            size: 3637
          }
        }
      }
    }
  }
  attr {
    key: "dtype"
    value {
      type: DT_FLOAT
    }
  }
  attr {
    key: "value"
    value {
      tensor {
        dtype: DT_FLOAT
        tensor_shape {
          dim {
            size: 3637
          }
        }
        tensor_content: "ff\222Bff\223B\232\231\220B\232\231\226B\000\000\225B33\223B\315\314\223B\232\231\221B\315\314\224B33\222B\315\314\221B\315\314\223B\232\231\222B33\224Bff\221Bff\222B33\226B\315\314\224B\315\314\222B\315\314\224B\315\314\225B\315\314\225Bff\225B\000\000\230B\000\000\220B\232\231\206Bff\216B\315\314\216B\232\231\215B33\222B\232\231\223B\000\000\231Bff\227Bff\224Bff\233Bff\226B\000\000\230B\232\231\230B\000\000\231B\000\000\233B\000\000\230B\232\231\225Bff\227B\000\000\226B\232\231\227B\000\000\227B\000\000\220B33\220B\232\231\216Bff\223B\315\314\221B33\221B33\220B\000\000\217B33\221B33\220B33\220B\000\000\221B\232\231\217B33\222B33\215B\315\314\217B\232\231\224B33\224B\315\314\221B\232\231\222B\000\000\227B\232\231\224B\315\314\223B33\224B\232\231\215B\315\314\205B33\220B\315\314\220B\000\000\215Bff\221B33\222B\000\000\222B\000\000\222B\232\231\220B\000\000\225Bff\224B\000\000\222B\315\314\223B\000\000\223B33\225B\315\314\224Bff\223B\000\000\224Bff\222B33\225B\000\000\221B\000\000\220B\315\314\226B33\226Bff\223B\000\000\225B\000\000\230Bff\224B\232\231\223B33\230Bff\221B\315\314\202Bff\223Bff\223B\000\000\220B\315\314\221B\000\000\224B\232\231\217B\000\000\221B\315\314\220B33\212Bff\222Bff\222Bff\223B\315\314\220B\232\231\221B\000\000\222B\232\231\223Bff\214B33\212B33\217B\000\000\223B\232\231\223Bff\222B\000\000\223B\315\314\221B\000\000\215B\232\231\210Bff\206Bff\215B\000\000\220B33\214Bff\220B\315\314\217B\000\000\217B\315\314zBffhB33\206Bff\222Bff\225Bff\225B\232\231\222Bff\226B\232\231\223B\232\231\225B\315\314\223B\000\000\225B\232\231\225B\000\000\227B33\222Bff\223B\232\231\225B\000\000\230B33\230B\000\000\230B33\230B\000\000\227B\315\314\222B\232\231\215B33\216B\000\000\224Bff\225B33\226B33\227B\232\231\226B33\224B\232\231\203B\000\000~B\000\000\223B\315\314\211B\232\231\214B33\213B\232\231\206B33\212B\000\000\210B33\212B\000\000\211B\315\314\207B\315\314\211Bff\214Bff\216B\232\231\220B\000\000\222B33\225B\000\000\226B\232\231\225B\000\000\225B\000\000\224B\315\314\216Bff\212Bff\210B33\215B\232\231\216B\232\231\217Bff\221B33\217B\000\000\215B\315\314~BffvBff\212B\000\000\230B\000\000\233B\000\000\227Bff\227B\000\000\222B33\220B33\221B\315\314\216B\232\231\217Bff\223B33\227B\315\314\222Bff\224B\315\314\226B\315\314\222B33\226B\315\314\223B\232\231\220B33\222B\315\314\224B33\224B\232\231\223B\000\000\221B\232\231\221B\315\314\221Bff\223B\315\314\220B\000\000\221B\232\231\221Bff\222B33\224B33\224B\315\314\214B33\215B33\220B33\216B\232\231\221B\000\000\224B\315\314\222Bff\223B\315\314\225B33\227B\000\000\226B\232\231\227B\315\314\230B33\224B\000\000\232Bff\226B33\224Bff\226B33\227B\000\000\230B\232\231\226B\232\231\225B33\225B\232\231\224B\315\314\227B\000\000\226B33\226B\000\000\230B\232\231\226Bff\230B33\226Bff\216B33\215B\232\231\221B\000\000\220B\000\000\221B33\222B\232\231\220B\232\231\221Bff\224B\232\231\225B\315\314\223Bff\224Bff\225B\000\000\222B\000\000\227B\232\231\224B33\223B33\224B33\225B\232\231\224B\315\314\223B\315\314\220B33\221B33\222Bff\224B\000\000\221B33\221B\315\314\221Bff\220Bff\222B33\223B\315\314\215B\000\000\214B\232\231\215B\232\231\214B\315\314\222B\232\231\225B\315\314\224B33\225Bff\223B33\224B\315\314\223B33\222B\315\314\222B33\214B\000\000\230B\315\314\230B\315\314\226B\315\314\227B\315\314\224B\315\314\217B33\223B\000\000\225B\232\231\223B33\226B\000\000\227Bff\227B33\227B\315\314\227B\315\314\226B\000\000\222Bff\215B\232\231\215B\232\231\220B\232\231\217B\000\000\211B\232\231\223B33\226B\232\231\224B\232\231\225B\232\231\224B33\225B33\224B\000\000\225B\000\000\225B\315\314\221B\000\000\231B\000\000\231B33\227B\000\000\226B\232\231\221B\315\314\216B\315\314\222B\232\231\226B\232\231\220B33\226B\315\314\225B\232\231\226Bff\227B\232\231\226B\000\000\230B33\221B33\214B\000\000\214Bff\217Bff\216B\232\231\214Bff\226B33\226Bff\225B\315\314\225Bff\223B\232\231\224B\232\231\223B\000\000\224B\315\314\223B\315\314\221B33\230B\232\231\227B\232\231\225B\315\314\224B\232\231\217B\000\000\216B\000\000\223B33\224B33\216B\315\314\222B\000\000\223Bff\224Bff\225Bff\225B\315\314\226Bff\217Bff\212Bff\211Bff\216B\315\314\213B\315\314\212Bff\222B\232\231\223B\315\314\223B\232\231\223B\232\231\225B\232\231\224Bff\226B\315\314\212B33sBfftB\000\000|Bff\200B\000\000\210B\232\231\207B\315\314\215B\315\314\214Bff\217B33\221B\315\314\222Bff\223B\000\000\221B33\221B\232\231\223Bff\230B\232\231\223B\315\314\223B\000\000\223B\315\314\223B33\223Bff\225B33\225Bff\223B\315\314\230B\232\231\227B\232\231\227B\232\231\231B\315\314\230B\000\000\227B\000\000\213B\315\314pB33wBff\200B33\203B\232\231\210B\315\314\213Bff\216B\315\314\217B33\222B\232\231\225B\232\231\226Bff\226B\000\000\223B33\225B\315\314\227B\315\314\231B\315\314\225B\000\000\226B\000\000\227Bff\226Bff\225Bff\226B\000\000\227B\315\314\221B33\232B\315\314\230B33\232Bff\233B33\230B\232\231\230Bff\214B\000\000zBff~B\315\314\203B\315\314\207B\315\314\212B\315\314\215Bff\221B\000\000\220B\232\231\222B33\225B\315\314\225B\000\000\226B\315\314\224B\315\314\230B\232\231\227B\232\231\227B\232\231\222B\232\231\221B\315\314\223B33\221Bff\222B\315\314\220B\315\314\221Bff\215B\000\000\214B33\220B\315\314\224B\000\000\230B\000\000\230B\000\000\227B\000\000\216B\000\000\222Bff\222B\000\000\221B33\223Bff\207B\232\231\207BffpB\232\231oBff\204B\232\231\205B33\207B33\203B\000\000\210B33\215Bff\217B\232\231\215B\000\000\217Bff\224B33\217Bff\214Bff\213B\315\314\217B\000\000\217B\232\231\212B\232\231\214B33\210Bff\217B\000\000\217B\232\231\215B\000\000\217B\315\314\223B33\223Bff\225B\000\000\224B33\227B\232\231\212Bff\212B33{B33\200Bff\212B\000\000\214B\315\314\213B\315\314\210B33\215B\232\231\221B\000\000\224Bff\220B33\225B\000\000\230Bff\224Bff\221Bff\220B\000\000\225B\000\000\224Bff\221Bff\220B\315\314\216B\315\314\225B\000\000\223B\232\231\221B33\223Bff\224B\000\000\223B\000\000\226B\000\000\225B\000\000\227B\000\000\216B\232\231\214B\000\000\202Bff\202B\000\000\213B\232\231\214B\232\231\214B33\211B\315\314\214B\000\000\223B33\226Bff\222B\315\314\225Bff\227B33\226B\232\231\224B\000\000\223B\315\314\226B\000\000\227B\315\314\223B33\223B\232\231\223B\232\231\226B\232\231\223B\232\231\221B\232\231\224B\000\000\216Bff\210Bff\220Bff\224B\000\000\225B\000\000\224B\232\231\223B33\224Bff\222B\232\231\222B\000\000\222B\232\231\220B\000\000\224B\232\231\224B\232\231\220B33\221B33\220B\232\231\225B33\222Bff\216Bff\217B\000\000\225B\232\231\220B\000\000\213B\315\314\206B\315\314\213B\000\000\221Bff\221B\000\000\221Bff\223B\232\231\217B\315\314\221B33\216Bff\223B\000\000\225B\000\000\225B\000\000\223Bff\223B33\223B\232\231\222B\315\314\222B\315\314\222B33\222B\232\231\224B\000\000\223B\000\000\221B\232\231\220Bff\221B\232\231\225B\000\000\225B\315\314\217B33\220B\315\314\225B\232\231\220B\315\314\214B\315\314\210B\000\000\213B33\220B33\222B\000\000\222B33\224Bff\221B\000\000\222Bff\217Bff\221B\000\000\223B\000\000\221B\315\314\221Bff\221Bff\222B\232\231\221Bff\226B\232\231\223Bff\222B\000\000\224B\232\231\217Bff\215B\315\314\215B\232\231\220B\232\231\221Bff\221B33\220B\315\314\220Bff\221Bff\216B\000\000\215B\232\231\211B\000\000\214B\000\000\216B33\215B\315\314\220B\000\000\221B\000\000\217B\000\000\223B\232\231\222B\232\231\217B\315\314\221B33\223Bff\224B33\230B\315\314\227B\000\000\230B33\226B\315\314\225B33\223B33\225B\000\000\221B\232\231\212B33wB\232\231mB\315\314xB\000\000\207B\232\231\207B\315\314\206B\000\000\210B\000\000\220B33\215B\000\000\222Bff\217B\315\314\220B\000\000~B\315\314vB\232\231\200Bff\213B33\223B\315\314\222B\000\000\217B\232\231\221B33\221B33\223B33\226B\232\231\224B\315\314\225B\000\000\225B\000\000\224B33\220B\315\314\222Bff\220B\315\314\210B\232\231oB\315\314fB\232\231wBff\206B33\204B\315\314\205B33\206B\232\231\215B33\214Bff\222B33\214B\232\231\215B\000\000xB33mBffvB\232\231\215B\000\000\226B\315\314\225B\232\231\217Bff\223B\000\000\225B33\227B33\231Bff\230B\000\000\230B\315\314\227B\315\314\224B33\222B\000\000\225B\315\314\222Bff\213B\000\000xB\315\314lB33\177Bff\213B33\210B\232\231\211B\232\231\212Bff\216B\232\231\212Bff\221B\000\000\216B\315\314\217B\000\000zBffpB\315\314zB\232\231\213B\232\231\221B33\221Bff\222B\315\314\217B33\217Bff\216B33\216B\315\314\222B\000\000\223B\000\000\222B33\217Bff\214Bff\221Bff\220Bff\221Bff\220B\232\231\216B\315\314\216B\000\000\216B\232\231\216B33\214B\000\000\221B\232\231\217B\315\314\217B\000\000\221Bff\215B\232\231\223B\232\231\224B\232\231\221B\232\231\221B\232\231\217B\232\231\224B\000\000\224B33\224Bff\223B\232\231\222B\232\231\221Bff\222B\000\000\227B\232\231\226B\315\314\224B33\223B33\217B\232\231\223B\232\231\222B\315\314\224Bff\224B\000\000\221B\232\231\221Bff\220B\232\231\221B\232\231\217Bff\222B\315\314\222Bff\222B\232\231\222Bff\217B\315\314\227Bff\225Bff\223B33\223Bff\222Bff\225B\315\314\224B\315\314\223B\000\000\224B\232\231\222B\000\000\222B33\222B33\226B\000\000\227Bff\225B\315\314\224Bff\221Bff\225B\000\000\223B\232\231\225B33\225B33\222B\000\000\223Bff\222B\000\000\223Bff\220B\315\314\222Bff\224B\000\000\223Bff\224B\315\314\216B\232\231\227B\232\231\223Bff\221B33\223B\232\231\221Bff\206Bff\211B33\216B\232\231\224Bff\224B33\221B\232\231\225B\000\000\226B\232\231\220B\000\000\217B33\216Bff\216B\000\000\221B33\222B\000\000\223B\315\314\224B\232\231\226B33\231B\000\000\227B\232\231\227Bff\227B33\224B\000\000\224B33\225B33\224B\315\314\225Bff\225Bff\223B\000\000\226B33\230Bff\227B\232\231\211B\232\231\210Bff\215B\315\314\217B\232\231\223B33\220B\232\231\223B\232\231\222B\000\000\220B\315\314\215B\000\000\215B33\213B33\220Bff\221B\232\231\222B\315\314\222B33\223B33\230Bff\223Bff\224B33\222B\315\314\221B\315\314\220B\315\314\222B\000\000\224B\232\231\224B\000\000\224B\000\000\224Bff\225Bff\226B\232\231\225B33\214Bff\214Bff\221B33\223Bff\224B\232\231\222B33\226B33\225B\315\314\217B\315\314\220B\315\314\221B\000\000\221B\315\314\224B\315\314\223B\315\314\225B33\225Bff\230B\315\314\231B33\231Bff\230B\232\231\225B\232\231\223B\232\231\223B\000\000\226Bff\227B\232\231\225B\315\314\226B33\226B\232\231\227B33\231B\000\000\232B\315\314\230B33\227B\315\314\222B\000\000\225B\232\231\225B\000\000\225B\000\000\231B\000\000\225B33\223B\315\314\224B\232\231\227Bff\231B\232\231\227B33\226Bff\226B\232\231\223Bff\225B\315\314\224B\000\000\220B\000\000\224B\000\000\226Bff\224B\315\314\226B\315\314\226Bff\225Bff\225Bff\224B33\222B33\225B\000\000\226B\232\231\221B\315\314\227B\232\231\226B\315\314\223B33\223B33\223Bff\224B\232\231\227B33\225Bff\222B\232\231\222B33\226B\000\000\231B33\227Bff\225B\315\314\227B33\226B33\225B\315\314\224Bff\216B\000\000\223B\232\231\222Bff\224Bff\230B\232\231\226Bff\224Bff\224Bff\226Bff\226B\315\314\226B\000\000\225Bff\223B\000\000\222B\315\314\223Bff\222B\000\000\222B33\225Bff\224B33\225Bff\222B\315\314\216B\000\000\221B\000\000\222Bff\221B\000\000\224B\315\314\223Bff\221B33\215B\000\000\216B\000\000\220B\000\000\220B\232\231\214B33\222B\315\314\220Bff\221B\315\314\222B\000\000\220B33\221B\000\000\221B\315\314\223B\000\000\223B33\220B\000\000\220B\000\000\225B\000\000\226B\232\231\224Bff\226B\000\000\227Bff\227B\315\314\224B\000\000\224B\315\314\223B\232\231\222B\232\231\217B33\223B\000\000\225Bff\223B33\220B\232\231\217B\315\314\220B\315\314\221B\315\314\221B\232\231\220B\315\314\223B\315\314\223B\000\000\226B33\226B\232\231\222B33\223B\232\231\223B\315\314\226B\315\314\226Bff\222B\232\231\221B33\226B\315\314\225B\232\231\224B\000\000\225B33\225B33\231B\000\000\222B\315\314\226B\315\314\223B\315\314\220B\000\000\224B33\227B33\222B\315\314\221B\000\000\217B\315\314\216Bff\220Bff\221B33\217B\000\000\224B\315\314\224B33\226B\315\314\225Bff\222B33\223Bff\224B\232\231\226B\000\000\226B\315\314\222B\000\000\221B\315\314\226Bff\221B\315\314\216B\232\231\212B33\216B33\221B\315\314\222B\315\314\223Bff\224B\000\000\227B\315\314\223B\000\000\224B\232\231\224B\000\000\224B\315\314\223B\315\314\225B\315\314\225B\232\231\225B33\223B\232\231\223B\315\314\224B\000\000\221Bff\214Bff\207B33\201B\000\000\200B\000\000\212B\000\000\213B\000\000\213B\000\000\212B\000\000\212Bff\230Bff\226B\315\314\222Bff\215B\315\314\220Bff\225B\000\000\225Bff\223B\000\000\227B\232\231\233B\000\000\230Bff\230B\315\314\230Bff\227B\000\000\230B\000\000\231B33\230B33\231B\315\314\230B\000\000\231Bff\230B\232\231\227B\000\000\220B\315\314\210B33\203Bff\205B\232\231\217B\232\231\217B\315\314\216B\000\000\220B\315\314\216B33\224B33\223B33\226Bff\230Bff\227B33\227B33\227B\232\231\225B\000\000\225B\315\314\227B\232\231\226B\315\314\230B\232\231\226B33\230B\000\000\230B33\225Bff\221B\000\000\213B33\202Bff\204B33\217B\315\314\216B\315\314\214B\232\231\216Bff\214B\000X\214B\232I\214B3;\214B\315,\214Bf\036\214B\000\020\214B\232\001\214B3\363\213B\315\344\213Bf\326\213B\000\310\213B\232\271\213B3\253\213B\315\234\213Bf\216\213B\000\200\213B\232q\213B3c\213B\315T\213BfF\213B\0008\213B\232)\213B3\033\213B\315\014\213Bf\376\212B\000\360\212B\232\341\212B3\323\212B\315\304\212Bf\266\212B\000\250\212B\232\231\212B\232\231\215B\315\314\222B\000\000\225B\000\000\224B\000\000\221B\000\000\223B\315\314\222B\315\314\223B\000\000\224B\000\000\224B\000\000\223Bff\222B\232\231\221B\000\000\217B\232\231\217B\232\231\221B33\225B33\221B33\220B\000\000\222B\232\231\225B\315\314\226B33\225B\000\000\227B\000\000\225Bff\220Bff\222Bff\223B\232\231\220B\000\000\222B\315\314\222B\315\314\223Bff\230B33\227B\232\231\230B\315\314\223Bff\224B\232\231\226B\232\231\226B\232\231\230B\232\231\230B33\225B\000\000\224B33\223B\232\231\220Bff\223B\315\314\224Bff\226B\000\000\222B\232\231\222B33\223B\000\000\227Bff\227B\000\000\227Bff\230B\315\314\232B\000\000\230B\315\314\227Bff\231Bff\231Bff\225B33\217B33\217B33\227B33\227B\315\314\226B\232\231\222Bff\222B\232\231\222B\232\231\223B\232\231\224Bff\225B33\223B\315\314\226Bff\227Bff\224Bff\225Bff\227B\232\231\230B\315\314\224B\232\231\223B\315\314\225B\000\000\232Bff\232B\315\314\231Bff\232B\000\000\232B33\225B\315\314\223B\232\231\224B\000\000\226B\232\231\222B\000\240\222Bf\246\222B\315\254\222B3\263\222B\232\271\222B\000\300\222Bf\306\222B\315\314\222B3\323\222B\232\331\222B\000\340\222Bf\346\222B\315\354\222B3\363\222B\232\371\222B\000\000\223Bf\006\223B\315\014\223B3\023\223B\232\031\223B\000 \223Bf&\223B\315,\223B33\223B\2329\223B\000@\223BfF\223B\315L\223B3S\223B\232Y\223B\000`\223Bff\223B\315\314\225Bff\226B\315\314\221B\315\314\214B\000\000\217B\315\314\223B\000\000\224B\000\000\223B\000\000\222B\232\231\224B\232\231\223B\000\000\224B\315\314\222B\000\000\217B\232\231\207B\000\000\222B33\222B\000\000\220B\315\314\215B\232\231\224Bff\225Bff\230B\315\314\226B\232\231\225B\232\231\223B33\224B\000\000\222Bff\222B\315\314\210Bff\210Bff\224B\000\000\226B\232\231\227Bff\224B\315\314\224Bff\225B\315\314\231B\315\314\230B\000\000\230B33\231B\000\000\231B33\231B33\230B\000\000\230B\000\000\223Bff\215B\232\231\233B\315\314\227B\232\231\226B33\225Bff\227Bff\230Bff\230B33\230B33\227B33\230B33\227B33\226Bff\223B33\214B\315\314\221B\232\231\225B\232\231\226B\000\000\227B\000\000\222B\315\314\217B\315\314\216Bff\225B\000\000\226B\315\314\227Bff\232B\000\000\224B\232\231\225B33\224B\232\231\221Bff\211B\315\314\230B\000\000\224B\315\314\221B\315\314\217B\000\000\227B\315\314\230B\315\314\230B33\231B33\227B\000\000\230B\000\000\227Bff\226B33\222B\000\000\213B\000\000\220B\232\231\224Bff\224B\315\314\225B\315\314\225B\232\231\224B\000\000\223B33\224B33\225B\000\000\225B\232\231\225B\315\314\226B\232\231\225B\000\000\226B\315\314\224B\000\000\231B\315\314\212B\315\314\227B\232\231\223B\000\000\223B\315\314\222Bff\226B\232\231\227Bff\230B\315\314\230B33\230B\232\231\226B33\226Bff\226B\000\000\225Bff\217B\315\314\222Bf\226\222B\000`\222B\232)\222B3\363\221B\315\274\221Bf\206\221B\000P\221B\232\031\221B3\343\220B\315\254\220Bfv\220B\000@\220B\232\t\220B3\323\217B\315\234\217Bff\217B\0000\217B\232\371\216B3\303\216B\315\214\216BfV\216B\000 \216B\232\351\215B3\263\215B\315|\215BfF\215B\000\020\215B\232\331\214B3\243\214B\315l\214Bf6\214B\000\000\214B\000\000\220B33\220B\315\314\221B33\221B33\222Bff\222B\315\314\224B\232\231\221B33\211B\232\231\214Bff\215Bff\204B33\211B\000\000\222B33\214B33\212B\000\000\212B\232\231\207B\000\000\212B\315\314\215B\000\000\216Bff\217B\232\231\220B\315\314\216B\315\314\214B\232\231\216B33\215B33\213Bff\213B\315\314\201B\000\000\217Bff\222B33\223B\315\314\223Bff\224B33\224B\000\000\226Bff\225B\315\314\221B33\214B\315\314\216B\315\314\217B33\214B\315\314\220B\232\231\222B33\216B\232\231\216B\315\314\213B\232\231\214B\315\314\222Bff\221B33\224B\315\314\224B\000\000\225Bff\221B33\220B\000\000\221B\000\000\217B\232\231\221Bff\214B33\211B\232\231\220B\315\314\224B33\224B\232\231\225B\315\314\226B\315\314\223B\000\000\230B\315\314\227B\000\000\223B\315\314\217B\232\231\223B33\223B\000\000\217Bff\224B33\227B\315\314\222B33\221B\232\231\215B\232\231\217B\232\231\220Bff\220B\000\000\226B\315\314\225B\232\231\227B\000\000\224B\232\231\223B\315\314\224B33\224B\232\231\224Bff\220Bff\215B33\221B\000\000\223Bff\222B33\222B\315\314\223B33\224B\000\000\224B\000\000\226B33\223B33\217Bff\222B\315\314\216B\000\000\221Bff\223B\315\314\225Bff\216B\315\314\220B\315\314\216B\000\000\220B\315\314\217Bff\222B33\224B\315\314\223B33\225B\232\231\225B\315\314\222Bff\226B33\224B\232\231\223B33\223B33\221B3C\221B3S\221B3c\221B3s\221B3\203\221B3\223\221B3\243\221B3\263\221B3\303\221B3\323\221B3\343\221B3\363\221B3\003\222B3\023\222B3#\222B33\222B3C\222B3S\222B3c\222B3s\222B3\203\222B3\223\222B3\243\222B3\263\222B3\303\222B3\323\222B3\343\222B3\363\222B3\003\223B3\023\223B3#\223B33\223B\232\231\221B\232\231\220B\315\314\221Bff\217Bff\222B\000\000\225B33\226Bff\225B\315\314\225B\000\000\225B\000\000\226Bff\224B33\224B\232\231\226B33\224Bff\224B\315\314\224B33\223B\315\314\223B33\221Bff\217B\000\000\220B\000\000\223Bff\226B\315\314\223B\315\314\221B\000\000\222B33\222B33\223B33\222B\000\000\220B\000\000\217B33\215B\232\231\216B\000\000\220B\000\000\222Bff\226B33\226B\315\314\224Bff\223B33\225Bff\225B33\223B\000\000\221B\315\314\224B33\226Bff\224B\232\231\224B\000\000\220Bff\224B\000\000\222B33\220B\315\314\217B\232\231\221B\315\314\225Bff\223B\000\000\221Bff\221B\000\000\221B33\223Bff\224Bff\223B\000\000\224B\000\000\221B\315\314\222Bff\220B\000\000\224B\232\231\226B\000\000\227B\232\231\226B33\226B33\226B33\226B\000\000\225B\315\314\225B33\227B33\227B\232\231\224B\000\000\224B\000\000\224B\000\000\225B33\222B33\221B\232\231\221B\000\000\224B\000\000\230B\232\231\225B33\222B\000\000\223B\315\314\221B\000\000\224B\232\231\224B33\220B33\224B33\221B\315\314\222B33\221Bff\224Bff\230B\000\000\230B33\230Bff\226B33\230B\232\231\227B\000\000\226B33\226B33\230B33\230B\232\231\223Bff\224B\000\000\224Bff\226Bff\222B\000\000\221B\232\231\220B\315\314\226B33\231B\315\314\225B\315\314\222B33\223B\232\231\223B33\225B\315\314\225B33\230B33\226B\232\231\222B\232\231\223B\315\314\222B\000\000\227B\232\231\227B\315\314\230B\232\231\227B\232\231\227B\315\314\230B\000\000\233Bff\226Bff\227B\315\314\231Bff\230B\000\000\225B\000\000\227B\232\231\224B33\225B33\222B\000\000\220Bff\220Bff\225B33\230B\000\000\226Bff\222Bff\223B\232\231\222B\232\231\223Bff\221B33\221Bff\221Bff\215B\315\314\220B\315\314\220B33\220B\315\314\223Bff\224Bff\222B\000\000\222B\232\231\222B\315\314\223Bff\221B\315\314\220B\315\314\223B33\225B33\222B\315\314\221B\000\000\222Bff\222B\315\314\220B\000\000\215B\315\314\215Bff\221B33\225B33\223B\315\314\221B\232\231\220B33\220B\232\231\221B\315\314\221B\000\000\221B\315\314\223B\232\231\217B\232\231\217B\315\314\222B33\224B\315\314\230B33\227B\315\314\221B\232\231\222B\000\000\225B\315\314\223B\232\231\223B\000\000\221B33\226B\315\314\232Bff\230B33\226B\000\000\227B\000\000\227B33\227B\232\231\225Bff\225B33\225B33\226B\315\314\221B\000\000\217Bff\212B\232\231\214B33\222B\315\314\220B\232\231\221B33\223B\315\314\217B\000\000\216B\315\314\217B33\223B33\226B\232\231\227B\232\231\221Bff\214B33\230B33\226B\232\231\226Bff\221B\315\314\225B\000\000\233B33\233B\232\231\227B\232\231\231B33\230Bff\231B\000\000\227B33\226B\315\314\227B\315\314\225B\315\314\221B33\217B\232\231\206Bff\211B33\220B\000\000\222B\315\314\220Bff\223B\315\314\220B\232\231\215B\000\000\221B33\224Bff\226B\000\000\227B\232\231\221B\315\314\221B33\225B\232\231\224B\000\000\225Bff\220Bff\226Bff\232B\232\231\231B33\227B33\230B33\227B\315\314\227B\000\000\226B\232\231\226B\000\000\227B33\227Bff\222B\315\314\217B\315\314\212B\315\314\214B\000\000\225B33\225B\315\314\223Bff\230B\000\000\224B\315\314\221B\315\314\224B33\227B\315\314\231Bff\232B\000\000\225B\000\000\225B\315\314\227B\232\231\230Bff\227B\315\314\224B\315\314\227Bff\226B\232\231\231Bff\233B\315\314\233Bff\233Bff\232B\000\000\231B33\231B33\232B\315\314\232B\000\000\226B\000\000\223B33\215B\232\231\220Bff\226Bff\222B\000\000\223B\232\231\224Bff\222B\315\314\217B33\223Bff\225B\232\231\231Bff\226B33\225B\000\000\224B\000\000\225Bff\225B\000\000\225B\000\000\223B33\227B\000\000\233Bff\231B\232\231\227Bff\227B\000\000\226B\232\231\227B\000\000\227B\232\231\226B33\226B\000\000\230B33\225B33\222Bff\216B\315\314\217B\315\314\223B\000\000\220Bff\217B\232\231\222B\232\231\217B\000\000\217B33\223B\315\314\223B33\225B\232\231\226B\232\231\222B\315\314\217B33\226Bff\225B\000\000\225Bff\221B33\226B\315\314\231B\315\314\230Bff\226Bff\227B\315\314\226Bff\226B\232\231\225B\000\000\226B\315\314\227B\232\231\227B\315\314\223B\000\000\220Bff\213B\315\314\211Bff\220B\000\000\227B\000\000\226B\232\231\226B\232\231\225B33\225B\315\314\225Bff\230B33\232Bff\233B\315\314\224Bff\223B33\214B33\216B\000\000\222Bff\223B\000\000\233Bff\226B33\230Bff\226B\232\231\226B\315\314\226B\232\231\220Bff\221B\315\314\223B33\225B\000\000\230B\232\231\231B\232\231\227B\232\231\226B\315\314\230B\000\000\227B\315\314\222B33\224B\000\000\223B\315\314\223B33\223Bff\223Bff\222B33\215B\000\000\230B\232\231\225B\315\314\220B\000\000\214B\000\000\212B\000\000\222B\315\314\217B33\225B\232\231\227B\315\314\225B\232\231\224B\232\231\225B33\226B\232\231\217B\000\000\220B\232\231\221B33\225B33\227B33\231B\315\314\227B33\226B33\227B\232\231\225B\232\231\227B\000\000\225B\000\000\226B33\225Bff\225B\232\231\225Bff\226B\000\000\230Bff\233B\000\000\226B33\224B\000\000\214Bff\215B\315\314\221B\000\000\222B\232\231\231B\000\000\227B33\230Bff\227B33\227B33\227Bff\221Bff\221B\315\314\224B\315\314\225B\315\314\230Bff\232Bff\231B\315\314\230B\232\231\231B\232\231\227Bff\233B\315\314\231B33\233B\000\000\231Bff\230B\315\314\227B\315\314\232Bff\233Bff\235B33\231B\315\314\226B\315\314\217B\000\000\222B\000\000\225B\315\314\226B\232\231\234B\232\231\232B33\234B\315\314\231B\232\231\232B\000\000\233B\315\314\223B\232\231\223B\000\000\226B\315\314\227B\315\314\233B\000\000\235B\232\231\232B\232\231\233B\232\231\234B\315\314\232B\000\000\227B\000\000\226B\000\000\227B\232\231\225B33\226B\232\231\226B33\233B33\233B\315\314\232B33\227B\232\231\224Bff\215Bff\216B\000\000\223Bff\223B\232\231\231B\315\314\225B\315\314\227B\000\000\226B\000\000\226B\315\314\225Bff\222Bff\221Bff\221Bff\223B\315\314\226B\232\231\227Bff\227Bff\227Bff\231Bff\227Bff\227B33\226B\232\231\226B\232\231\225B\000\000\227Bff\225B\315\314\227B33\232Bff\232B33\226B\000\000\225B\232\231\213B\000\000\216B\232\231\222B\315\314\217B33\227B\315\314\227B\315\314\226B\000\000\227B\000\000\226B33\227Bff\221B\315\314\221B33\224B\232\231\224B\232\231\226B\000\000\231Bff\230B\232\231\227B\232\231\230B33\226B\232\231\230B\000\000\232B33\226Bff\226Bff\225Bff\230B\232\231\203B\232\231\206B\232\231\220B\315\314\223B33\223B\000\000\203B\232\231gB33iB33iB\232\231oBffxBff\214B\315\314\225B\315\314\227B\000\000\230B\232\231\222B\000\000\231B\232\231\231Bff\230Bff\230B\315\314\224B\000\000\226B\315\314\221B\315\314\220B\000\000\214B\315\314\226B\315\314\225B\000\000\223B\232\231\222B\232\231\222B\000\000\223B\232\231\177B\000\000\202B33\217B\000\000\221B33\220B\315\314\200BffbB\315\314bB33_B\232\231eB\232\231qB\232\231\207B\232\231\224B\315\314\223B\000\000\223B\315\314\220B\000\000\225B33\226B33\225B\315\314\225B33\225B\000\000\225B\000\000\215B\315\314\214Bff\203B\315\314\233B\000\000\235B\000\000\231B\232\231\231B\315\314\230Bff\232B\000\000\206B\000\000\213B\232\231\224B\000\000\230Bff\225B33\203B\232\231gB\315\314fB\000\000dB\000\000nBffxB\232\231\215Bff\226B33\230Bff\227B\232\231\224B33\231B33\232B33\231Bff\231Bff\226Bff\226B\000\000\222B\000\000\220B\232\231\213Bff\237B\315\314\240B\000\000\232B\000\000\235B\315\314\232B\000\000\234Bff\210B\232\231\214B\232\231\227B\232\231\231B\315\314\231B\315\314\210B\315\314rB\232\231qB33qB\232\231wB\315\314\201B\232\231\223B\315\314\232B\232\231\235B33\233B\000\000\233B\000\000\235Bff\240B\000\000\236B\000\000\236B\232\231\232B\315\314\233Bff\227B33\225B\000\000\221B\000\000\234B33\234B\000\000\234B\315\314\231B\315\314\227B33\235B\232\231\215B\315\314\215B33\217B33\226B\232\231\227B\232\231\213B\000\000zBffzB\315\314zB\000\000\201B\232\231\206B33\222B\315\314\234B33\237B\000\000\236Bff\236B33\235B33\231B\232\231\226Bff\225B\232\231\224Bff\223Bff\217B33\217B\232\231\215Bff\230Bff\233B\000\000\232B\315\314\230Bff\232Bff\234B\232\231\206B\232\231\211B\315\314\221B\000\000\226B33\225B\232\231\206B\000\000tB33wBffrB\232\231yB33\200B\232\231\220B\000\000\234Bff\234B\232\231\233B\232\231\227B33\232B\232\231\230B\232\231\231B\000\000\232B\000\000\231B\315\314\227B\315\314\222B\315\314\221B\000\000\217B\000\000\221Bff\223B\000\000\222B33\222B\000\000\222B33\217Bff\217B\232\231\220B\232\231\222B\315\314\217B33\222B33\222B\000\000\222B\315\314\226B\315\314\227Bff\224Bff\222Bff\222B33\224B\232\231\222Bff\221B\315\314\221B33\223B\315\314\223Bff\224B\000\000\225B\232\231\226B33\223B\232\231\217B\315\314\215B33\223Bff\221B33\217B\315\314\221B\315\314\216B\000\000\217Bff\213B33\215B33\215B\315\314\221B\315\314\216B33\221B33\223B\000\000\221B\000\000\225B33\226B\315\314\222B\315\314\223B\232\231\223B\000\000\225B33\226B\232\231\217Bff\220B\315\314\225Bff\224B\232\231\226Bff\226B\000\000\226Bff\223B\000\000\221B\315\314\214Bff\221B\232\231\221B33\224B\000\000\223B33\223B\000\000\223B\000\000\220B33\221B\000\000\221B\232\231\224Bff\221B\315\314\222B\315\314\223B\315\314\222Bff\226B33\230B\000\000\226B\315\314\224B\232\231\224B\315\314\225B\232\231\225B\000\000\222B\315\314\223B\315\314\224B33\225Bff\225B\315\314\226B\232\231\226B\315\314\224B\232\231\220B\000\000\216B\315\314\224B\000\000\231Bff\233B\000\000\233B\315\314\232B\315\314\233B33\225B\000\000\231Bff\231Bff\233B33\230Bff\231B33\234Bff\233B\315\314\237B\315\314\240Bff\234B33\235B33\236B\232\231\235B\315\314\234B\315\314\232B\315\314\233Bff\234B\232\231\235B\232\231\236B\000\000\240B\315\314\237B33\234B\315\314\230Bff\225Bff\234Bff\220B\232\231\222B33\222B33\222B33\222B33\220B33\220B\232\231\220B\000\000\224B33\222B\315\314\221B\000\000\223B\000\000\223B\232\231\226B33\227B33\225B33\221Bff\222B33\225B\000\000\224B\315\314\221B\315\314\222B33\224B\232\231\222B\000\000\225B\000\000\226B\315\314\225Bff\224Bff\221Bff\221B\000\000\224Bff\217Bff\221B\232\231\221B\000\000\223B\315\314\222B\315\314\217Bff\222B\315\314\220B\232\231\222B\315\314\217B\000\000\222B33\223B\000\000\223B33\226B\315\314\226B\000\000\226B\315\314\223B33\224B33\225B\000\000\224B\232\231\217B\000\000\223B\315\314\224B\315\314\223B\315\314\225B33\227B\315\314\225B\000\000\224B\000\000\223B33\220B\315\314\224B\232\231\224Bff\220B\315\314\221Bff\221B\000\000\223B\232\231\224B\000\000\222B\000\000\225B\000\000\224B\232\231\223B33\223B\000\000\223B\232\231\221B\000\000\222B33\221Bff\224B\315\314\223B33\223B33\224Bff\224B33\225B\232\231\224B\315\314\223B\315\314\223Bff\225B\000\000\226B\232\231\226Bff\225B\315\314\222B\232\231\205B33\202B\000\000\224B\315\314\220B33\222B\315\314\221B\000\000\223Bff\217B33\224B\315\314\225B\315\314\224B\315\314\223Bff\223B\000\000\222Bff\220B33\220B\315\314\221Bff\225B\232\231\224B\232\231\223B\232\231\223Bff\224B33\223Bff\222B\315\314\222B\232\231\222B\232\231\224B33\226B\315\314\225Bff\224Bff\223B33\201B33{B33\225Bff\221B\232\231\222B\315\314\221B33\223B33\224B\000\000\223B33\225B\000\000\224B\315\314\223B\000\000\224B33\223B\315\314\222B33\223Bff\222Bff\225B\000\000\225B\315\314\224Bff\223B\315\314\224B\232\231\225B\315\314\224B\232\231\223Bff\224Bff\225B\000\000\227B\315\314\226B33\225Bff\223B33\201B\232\231\177Bff\226B\232\231\221B\000\000\230B33\230Bff\230B\232\231\233Bff\230B\000\000\234B\232\231\232B\000\000\231B\232\231\231Bff\232B\232\231\230B\315\314\230B\000\000\231Bff\234B\000\000\233B\000\000\233B33\232B\232\231\233B\232\231\234B\315\314\233Bff\232Bff\231B\232\231\235B\232\231\235B\232\231\236Bff\235B\315\314\232B\232\231\207B33\206Bff\225B\232\231\222B\232\231\222B\315\314\222Bff\223Bff\223Bff\223B33\225B33\225Bff\225B\232\231\224B\232\231\224B\315\314\221B33\223B\000\000\222B\315\314\224B\232\231\224Bff\225B\232\231\225B\000\000\225B\000\000\225Bff\224B\315\314\225B\232\231\225B33\226B33\227B\232\231\227B\315\314\227B33\222B\315\314\214B\232\231\206B\000\000\225B33\223Bff\222B\000\000\222Bff\223B\232\231\224B\000\000\223B\232\231\224B33\224B33\223Bff\224Bff\223B33\222Bff\222B\000\000\221B\232\231\224Bff\225B\315\314\224Bff\224B33\224B33\225B\000\000\223B\000\000\224B\000\000\224Bff\225B\000\000\227B33\227B\000\000\226B33\224Bff\205Bff\203B33\225B33\226Bff\225Bff\226B\000\000\226B\000\000\226B\000\000\225B\315\314\223B\315\314\222B\315\314\224B33\223B\232\231\224B\232\231\215B\232\231\220B\000\000\231B\000\000\232B\232\231\231Bff\231B\232\231\224B\000\000\223B\232\231\224B\232\231\230B\232\231\226Bff\224B\232\231\225B\315\314\223Bff\222B\000\000\222B\315\314\222B33\223B\232\231\222Bff\225B\232\231\223B\000\000\223Bff\225B\315\314\223B\000\000\224Bff\224B\000\000\221B33\222Bff\224B\315\314\224B33\225Bff\216Bff\216B\232\231\226B\000\000\227Bff\230B33\230B\000\000\225B\232\231\223B\232\231\223B\315\314\226B\232\231\225B33\223Bff\224Bff\222Bff\221B\315\314\217B\315\314\224B\315\314\223B\232\231\222B33\225B\232\231\225B\315\314\223Bff\225B\315\314\225Bff\226B\232\231\225B\232\231\223B\315\314\222B\232\231\224Bff\224B\315\314\224Bff\215B\232\231\215B\232\231\230Bff\232Bff\232B33\232B\232\231\225B33\223Bff\224Bff\230B\000\000\227B\000\000\225B\315\314\224B\232\231\223Bff\221B\000\000\222B\000\000\222B\000\000\224B33\222B33\234Bff\234B33\235B\232\231\235B\000\000\235B33\236B\315\314\234B33\230B33\233Bff\233B\315\314\233B\315\314\235B\000\000\225B\000\000\230Bff\240B\000\000\242B33\240B\232\231\242B\315\314\235B\232\231\236Bff\240B33\235B\315\314\236Bff\236B\232\231\232B33\235B\315\314\231B\232\231\233B\232\231\233B\000\000\225B\315\314\226B\232\231\224Bff\225B\232\231\225B\315\314\226B\000\000\227B\315\314\223B\315\314\224B\232\231\225B\000\000\227B\000\000\231Bff\220B\315\314\225B\000\000\232B33\233Bff\231B33\232B33\225B\315\314\223Bff\225B\232\231\231B33\231B33\225B\232\231\224Bff\224Bff\223B\000\000\223B\315\314\222B\232\231\223B\232\231\225B\000\000\226B33\226B\232\231\225Bff\224B33\225B33\226B\315\314\225B33\224B33\224B\315\314\225B33\225B\232\231\224Bff\215Bff\217B\232\231\226B\232\231\227B\315\314\231Bff\232B33\225B\000\000\223B33\224B\000\000\227B\232\231\227B33\224B\315\314\224Bff\223Bff\221B\232\231\217Bff\223B\315\314\223B33\223B\315\314\221B33\222Bff\222B\232\231\216B\315\314\217Bff\223Bff\224B33\221B\232\231\220B\000\000\223Bff\223B\315\314\225Bff\225Bff\222B33\223Bff\225B\232\231\221B\315\314\221B\000\000\217Bff\221B\315\314\224Bff\222B\315\314\220B\000\000\217B\232\231\214B\315\314\221B\232\231\220B\315\314\220B\315\314\220B\000\000\221B33\216B\315\314\217B\315\314\220B33\216Bff\216B\315\314\217B\000\000\223B\000\000\223Bff\221B\315\314\220B\315\314\221B\000\000\222Bff\224B\000\000\223B\000\000\220Bff\225Bff\225B\315\314\217B\000\000\221B33\217B33\217Bff\223B33\224B\315\314\221B\000\000\215Bff\215B\000\000\217B\232\231\221Bff\221B33\220B\315\314\213Bff\217B33\222Bff\222B\315\314\220B\000\000\221B\315\314\216Bff\222B\232\231\222B\000\000\222Bff\221B\000\000\223Bff\223B\232\231\225B\232\231\225B\232\231\222B\232\231\224Bff\225Bff\221B\232\231\221B\232\231\216B33\221B\000\000\223B33\223Bff\221B\000\000\217B\232\231\214Bff\217B\000\000\220B33\221B\315\314\216B\232\231\217B33\216Bff\226B\000\000\225B\232\231\225B33\220B\315\314\221B\232\231\223B\315\314\224B\232\231\224B33\222B\232\231\225Bff\226B\232\231\225B\315\314\225B\315\314\222B\000\000\216B\315\314\222B\232\231\224B\232\231\223B\315\314\215B\000\000\221B\232\231\221B\315\314\221B\315\314\225B\315\314\225B\315\314\224B\315\314\217B33\225B\315\314\226Bff\226Bff\225B\232\231\223B33\226B\000\000\227B\232\231\227B\315\314\231Bff\225B\232\231\225Bff\227B\000\000\225B33\224B\315\314\221B\315\314\224B\232\231\227Bff\226B33\224B\315\314\222B\000\000\222B\232\231\223B\315\314\224B33\224B33\223B\232\231\222B\315\314\221B\315\314\221B\000\000\221B\232\231\220Bff\216B\000\000\221B\232\231\222B\232\231\223B33\220B\315\314\220B\315\314\222B\232\231\222Bff\224B\232\231\225B33\221B\232\231\224Bff\226B\000\000\216Bff\221B\232\231\216B\315\314\221B\315\314\223B\000\000\224B\000\000\222Bff\214B33\217B33\220B\232\231\222B\000\000\223Bff\221Bff\217Bff\215B3\253\215B\000\360\215B\3154\216B\232y\216Bf\276\216B3\003\217B\000H\217B\315\214\217B\232\321\217Bf\026\220B3[\220B\000\240\220B\315\344\220B\232)\221Bfn\221B3\263\221B\000\370\221B\315<\222B\232\201\222Bf\306\222B3\013\223B\000P\223B\315\224\223B\232\331\223Bf\036\224B3c\224B\000\250\224B\315\354\224B\2321\225Bfv\225B3\273\225B\000\000\226B\315\314\223Bff\222B33\225B33\225B\315\314\221B33\223B33\223Bff\225Bff\227B\000\000\226B33\221B33\216Bff\222B\232\231\217B33\222B\232\231\222Bff\224B33\224B\232\231\224B\232\231\226B\000\000\214B\315\314\225Bff\224B\000\000\221B\000\000\222B\232\231\212B33\215B\315\314\211B\000\000\210B\000\000\206B\315\314\225B\000\000\217B33\220Bff\222B\232\231\221B\000\000\217Bff\221B\232\231\221B\315\314\224B33\231B\315\314\224B\315\314\216B\315\314\216B\232\231\222Bff\216Bff\221B33\224B33\225B\232\231\225Bff\225B\232\231\225Bff\220B\000\000\226B\232\231\227B\232\231\222B\315\314\221B\000\000\213B33\220B\315\314\216B33\205B\315\314\213Bff\224B\000\000\223B33\222B\315\314\221B\000\000\223B\232\231\220B33\222Bff\220Bff\223Bff\226Bff\224B\315\314\220B\000\000\217B\000\000\222Bff\216B33\220B33\221B\000\000\223B\232\231\223B\232\231\223B\000\000\226B\315\314\216B33\224B\315\314\223B\232\231\221B33\216B\232\231\212B33\213B33\214B\315\314\205B\232\231\213B33\227B\232\231\223B\000\000\221B\315\314\224B\232\231\223B33\222Bff\221B\232\231\222B\315\314\224B\315\314\227B\000\000\224B33\221B\000\000\222B\315\314\221B\000\000\220B\315\314\220B\000\000\222B\232\231\224B\315\314\223B\315\314\225B\315\314\227Bff\217Bff\225B\315\314\225B\000\000\224B\232\231\222B\000\000\214B\232\231\215B\315\314\215B\000\000\211Bff\211B\232\231\225Bff\223B\232\231\222B\315\314\223Bff\224B\315\314\220B\315\314\222Bff\221B\315\314\223B\000\000\226B\232\231\224Bff\220B\000\000\217B\232\231\222Bff\217B\232\231\220B\315\314\221B33\223Bff\223Bff\224B\000\000\225B\315\314\214B\000\000\224B\315\314\223B\000\000\221B\232\231\216B33\212B\232\231\213B\315\314\211Bff\207B\232\231\206Bff\231B\315\314\232B33\222B\000\000\222Bff\226Bff\222B\232\231\230Bff\226B\000\000\227Bff\224B\315\314\222B33\221B\232\231\221B\000\000\223B33\227B\000\000\230Bff\230B\232\231\232B\232\231\221B33\230B\000\000\230B33\224B33\221Bff\214B33\222B\315\314\216B\000\000\215B\232\231\215B\315\314\227B33\225Bff\225B\000\000\226Bff\226Bff\223Bff\224B\315\314\223B33\226Bff\231Bff\223B33\222B\000\000\217B\315\314\222Bff\220B33\223Bff\223B\315\314\224B33\225B\232\231\226B\000\000\230B\000\000\222Bff\224B\232\231\223B\315\314\222B\232\231\216B\315\314\213B\000\000\216B33\220B33\211B\315\314\215Bff\221B\232\231\213B33\215B\000\000\222B\315\314\220B\232\231\216B\000\000\217B33\220B33\222B33\226B\000\000\222B\232\231\214B\232\231\214B\000\000\220B33\215B\315\314\220B\315\314\220B\000\000\222B\315\314\221B\000\000\223B\000\000\224Bff\224B33\224Bff\221B\000\000\220B\000\000\212Bff\215B33\211B\315\314\204B\000\000\207B\000\000\216B\315\314\214Bff\224Bff\227B\000\000\227B\000\000\226Bff\226B\315\314\226Bff\225B\232\231\226B\000\000\225Bff\225B33\225B\315\314\227B\232\231\227B\232\231\227Bff\225Bff\230B33\230B33\227Bff\226B33\224B33\223Bff\221Bff\213Bff\200B\315\314tB\000\000\203B33\225Bff\230Bff\230B\000\000\227Bff\225B\315\314\231B\315\314\235Bff\233B\315\314\232B\000\000\232B\000\000\234B\000\000\231B33\232B\232\231\231B\232\231\233B33\231B\315\314\233B\232\231\233B\315\314\232Bff\230B33\235B33\234B\315\314\234B\232\231\230B\315\314\226B33\225B\000\000\223B\315\314\214Bff\204BffrB\232\231\201B\315\314\227Bff\235B33\235B\000\000\221Bff\222B\232\231\225Bff\230B\232\231\226B\232\231\226B\232\231\226Bff\226B\315\314\225B\232\231\224B\000\000\225Bff\230B\000\000\225B33\226B\315\314\226Bff\231B\000\000\227Bff\232Bff\230B\232\231\230B\232\231\225Bff\224B\232\231\224Bff\221B\232\231\215B\000\000\204Bff\200Bff\210Bff\224Bff\230B\232\231\227B\232\231\215B33\220B\000\000\225Bff\227B\232\231\225B\232\231\224B\315\314\225B\232\231\225B\232\231\224B\315\314\223B\315\314\223B33\226B\000\000\224B\232\231\225B\315\314\227Bff\226B\232\231\224B\000\000\230B\232\231\226B33\226B33\224B\232\231\223Bff\223B\315\314\217B\315\314\213B33\204B33\177B\000\000\207B\232\231\224B\315\314\227Bff\226B\315\314\214B33\216B\000\000\225B\000\000\230B\232\231\226Bff\226B\232\231\226B\000\000\226B\232\231\226B\000\000\227B\315\314\223B\000\000\225Bff\224Bff\230B\000\000\230B\232\231\230B\232\231\227Bff\230Bff\227Bff\227Bff\225B\232\231\224B\315\314\221Bff\220B\232\231\212B\315\314~B\000\000tB\232\231\205B33\224B33\231B33\233B\315\314\214B33\220B33\225B\315\314\227B\232\231\225B\315\314\224B33\225Bff\225B\000\000\225B\000\000\224B\315\314\223B\000\000\224B33\224B\232\231\224B\232\231\226B\232\231\226B\315\314\222B\000\000\216B33\224B\232\231\231B\000\000\233B\315\314\230B\315\314\230B\232\231\230B\315\314\230B\315\314\230B\232\231\227B\232\231\227B\315\314\227B\000\000\227B33\232B\232\231\232Bff\231Bff\227B\315\314\233B\232\231\231Bff\233B\232\231\231B\232\231\227B33\226Bff\223B33\220Bff\207B\232\231\202B\315\314\213Bff\231B33\234Bff\232B\315\314\214B33\220Bff\225B\315\314\227B\000\000\226B\232\231\224B\315\314\225B\000\000\226B\000\000\225B\000\000\224B33\224B\232\231\224B33\224B\000\000\225B\315\314\226Bff\226B\232\231\223B\232\231\227B\232\231\226Bff\226B33\224B"
      }
    }
  }
}
node {
  name: "ExpandDims/dim"
  op: "Const"
  attr {
    key: "_output_shapes"
    value {
      list {
        shape {
        }
      }
    }
  }
  attr {
    key: "dtype"
    value {
      type: DT_INT32
    }
  }
  attr {
    key: "value"
    value {
      tensor {
        dtype: DT_INT32
        tensor_shape {
        }
        int_val: -1
      }
    }
  }
}
node {
  name: "ExpandDims"
  op: "ExpandDims"
  input: "Const"
  input: "ExpandDims/dim"
  attr {
    key: "T"
    value {
      type: DT_FLOAT
    }
  }
  attr {
    key: "Tdim"
    value {
      type: DT_INT32
    }
  }
  attr {
    key: "_output_shapes"
    value {
      list {
        shape {
          dim {
            size: 3637
          }
          dim {
            size: 1
          }
        }
      }
    }
  }
}
node {
  name: "Const_1"
  op: "Const"
  attr {
    key: "_output_shapes"
    value {
      list {
        shape {
          dim {
            size: 3637
          }
        }
      }
    }
  }
  attr {
    key: "dtype"
    value {
      type: DT_FLOAT
    }
  }
  attr {
    key: "value"
    value {
      tensor {
        dtype: DT_FLOAT
        tensor_shape {
          dim {
            size: 3637
          }
        }
        tensor_content: "\315\314\254@33\263@\000\000\200@33\263@\000\000\260@33\303@\315\314\314@ff\266@33\323@\000\000\300@\232\231\251@33\303@33\303@33\303@ff\306@\315\314\234@\232\231\271@\315\314\234@33\263@ff\306@\232\231\251@ff\206@\315\314\274@33\263@ff\306@\315\314\254@\000\000\340@\232\231\001A\232\231\251@\000\000@@33\223@\315\314\314?ffF@\000\000\000@\000\000\200@fff@33\223@\232\231Y@\232\231\211@\232\231\231@\232\231y@\315\314L@33\203@33\263@\000\000@@\315\314\234@\000\000\200@\315\314\254@ff\206@33S@\232\231\231@\232\231\231@ff\206@33\243@33\223@\232\231\231@fff@\315\314l@fff@ff\206@ff\346@\232\231\231@ff\246@33\203@\232\231Y@\000\000@@33S@ff&@\315\314\214@\232\231Y@\000\000\260@33S@\232\231\331@\232\231\001A33s@33\363?\000\000\000@\232\231y@33S@ff\346?fff?ffF@\000\000`@\000\000`@\000\000\200@ff\226@\000\000@@\000\000`@\315\314L@33S@\232\231y@33\343@\315\314\234@33\223@fff@33S@\232\231\211@\315\314l@\315\314,@ffF@\232\2319@\315\314\234@fff@ff\326@\315\314\314@\232\231\211@ff\246?\232\231\331?\232\231\311@33\303@ff\266@\232\231\271@\315\314\274@\315\314\274@\000\000\320@\000\000\300@\000\000\260@ff\306@\000\000\240@\000\000\260@33s@\232\231\211@\232\231\331@\315\314\334@33\243@33\243@\315\314l@33S@\000\000\260@33\323@33\323@\315\314\234@\232\231Y@\315\314L@fff@\315\314\254@33\323@ff\226@\000\000\260@ff\226@ff\266@33\203@\232\231\251@ffF@33\243@\232\231\211@\315\314\234@33\203@33\223@\315\314l@\232\231\211@ffF@\232\231\231@33\263@\000\000\260@\232\231y@\232\231\251@\315\314L@\315\314\014@\315\314\254@ff\266@\000\000\300@fff@\232\231\031@ffF@\232\231\031@\315\314\214@\232\231\001A33\243@\315\314\234@33\223@\232\231\231@\232\231Y@33\203@\315\314l@\232\231y@\232\231\211@\315\314,@ff&@33s@\315\314L@ff&@ffF@fff@\232\231\271@\000\000\300@fff@\232\231\211@33S@ff\346?ffF@\232\231Y@ff\206@ff\006@\232\231\331?ff\006@\315\314\014@\315\314,@33\243@\232\231Y@\000\000`@\232\231\211@\000\000 A33\023@\232\231\271@\315\314\034A\232\231\211@33\243@\315\314\234@\000\000\240@\315\314\314@ff\326@\232\231\311@33\263@\315\314\274@\232\231\331@\232\231\371@\315\314\334@ff\346@33\363@33\363@\232\231\tA\232\231\001A33\323@ff\266@\315\314\234@\315\314\234@ff\206@33\243@\000\000\220@\232\231\271@\232\231\tA33\343@33\203@33\303@ff\326@\232\231\371@\232\231y@fff@fff@\232\231Y@ff\226@\232\231\231@\232\231y@33S@\000\000\220@33\303@33\303@\232\231\231@\000\000\240@\232\231\231@\315\314\274@\000\000\300@\000\000\220@\315\314\214@\232\231Y@\000\000@@\232\2319@33S@\000\000 @ff&@\315\314l@33\263@\315\314\214@ff\206@\232\231\231@\000\000\260@\000\000\010A\232\231Y@\232\231\211@\315\314\014@\000\000 @\000\000@@33s@ff\206@\000\000`@\232\2319@33S@\232\231\311@ff\246@\315\314\214@\315\314\214@33\223@\000\000\260@ff\206@33s@33\363?\000\000@@fff@ff\006@\315\314\014@\232\231\031@\232\231Y@33s@\315\314\214@\000\000 @\000\000`@ffF@\000\000\200@\232\231\251@ff\266@\315\314\274@\000\000\240@\232\231\211@ff\326@\315\314\334@\232\231\331@\000\000\300@\232\231\251@33\013A\315\314\234@\000\000\240@ff\346@\315\314\314@ff\326@\000\000\240@ff\366@\000\000\240@ff\346@\315\314\274@ff\306@\232\231\271@\315\314\314@\000\000\300@fff@33\323@ff\246@\232\231\331@\315\314\334@\000\000\340@33s@\000\000@@33S@\315\314,@\315\314\314?\315\314l@33\243@33\263@\315\314\014@ff\246@\232\231\231@33\223@33S@33\223@\000\000\220@ff\206@\315\314\014@\000\000\220@\232\231\031@33S@\232\231y@\315\314L@333@\232\231\211@\232\231Y@\315\314\314?333@\315\314\014@\000\000\260@ff\366@33\303@33S@333@333@33\263?333?ff&@\232\231Y@\000\000@@\232\231\031?ff\226@fff@ff&@ffF@33S@\000\000@@\000\000\000@\232\231\331?33s@\000\000\300?333@333@33\023@\232\231\031@\315\314,@\232\231\031@\232\231\331?\315\314,@\000\000@@\315\314l@ff\246@\000\000\240@\000\000pA333A\315\314\004A\232\231\371@ff\006A\232\231\311@\000\000\340@\000\000\340@33\243@ff\206@33\243@33\203@\000\000\320@\232\231\231@\315\314\214@33\263@ff\306@\315\314\314@\232\231\271@\232\231\331@33\263@33\203@\315\314\214@\232\231\331@\000\000\240@\000\000\260@33s@ff\226@\232\231\231@\232\231\231@\000\000\300@\232\231\215A\315\314\014A\315\314\254@33\263@33\243@\232\2319@ff\206@\315\314\014A33\303@\232\2319@33S@ff\206@33\223@\000\000\200@33\363?\315\314L@\232\2319@\232\2319@\232\231\211@\232\231\251@\000\000`@ff\006@\000\000@@33\203@fff@\000\000@@333@\232\231\031@ff&@333@\315\314l@33\207A33\003A\232\231\231@\232\231\231@\000\000\240@\000\000`@\232\231\231@33\263@\232\231\211@ff&@\232\2319@ffF@ff\206@\315\314,@\000\000\000@33S@\000\000@@333@\315\314l@33\203@333@\000\000\000@\315\314\014@\232\231Y@\232\231\031@\315\314L@ffF@\232\2319@\315\314L@\232\2319@\315\314l@\000\000 @\000\000\200@\000\000@@ff&@\000\000\000@\000\000\000\000ff\246?\000\000\240@ff\226@33\363@\315\314\374@33\323@\232\231\371@\315\314\004Aff\326@\000\000\220@ff\246@ff\246@33\303@ff\246@ff\306@\000\000\300@\232\231\331@ff\346@\315\314\334@\000\000\340@\315\314\314@\000\000\320@\232\231\231@\315\314\314@\315\314\374@33\323@\000\000\320@\315\314\274@ff\306@\315\314\274@ff\366@33\013Aff\006@\000\000@@\232\231y@\000\000\240@33S@\315\314\254@ff\006A\000\000\220@ff\246?\000\000\300?\232\231\031@\232\231Y@\315\314\014@\000\000\000@ffF@\232\2319@\232\2319@\000\000\200@fff@33s@\232\231\031@\232\231\031@\315\314,@\000\000\200@\232\2319@\315\314l@333@ff&@\000\000\000@\000\000`@\000\000\260@\232\231\331?\232\231\231?\232\231Y@33\223@333@\232\2319@\232\231\251@\315\314L@fff?\232\231\331?33S@\000\000\200@\232\231\031@ff\346?\315\314L@\315\314L@\315\314\214@\232\231\231@33\223@\000\000\220@\000\000`@\232\231\031@333@\315\314L@\232\231Y@\000\000\220@\232\231y@\232\231\031@\000\000\000@33\203@\232\231\231@\000\000\220@\000\000`@33\223@\315\314\214@\000\000\220@ff\266@\000\000\240@\232\231\231@ff\326@\000\000\300@\315\314\254@33\223@33\343@\315\314\334@\000\000\300@ff\266@\000\000`@\232\231\251@\232\231Y@\232\231Y@33s@\000\000\320@\232\231\331@\000\000\200@\232\231Y@33\203@\232\231\271@\232\231\271@\315\314\214@33\223@\232\231\251@ff\346?ff\246?33S@ff&@\232\231\031@\000\000@@\232\2319@ff\346?\315\314,@\000\000`@ff&@\232\231\031@\232\2319@\000\000@@\232\231Y@\000\000@@\000\000 @\315\314L@\232\2319@\232\231\031@\000\000 @33\263?\000\000\200@33\023@\000\000\000@33\023@\000\000\200@ffF@33\263?\315\314\014@\232\231Y@\315\314\314?\000\000\300?ff&@33\023@33\263?\315\314,@33\023@33\263?ff&@\315\314L@ff\346?\232\2319@\315\314,@\000\000@@\000\000 @ffF@\000\000\300?\000\000@@\000\000 @33\363?\315\314\314?33\023@\000\000`@\000\000 @\315\314\014@\000\000 @\232\231Y@\315\314,@\232\231\031@\315\314,@\232\231Y@\232\231y@\315\314\254@ff\326@\315\314l@\315\314\274@\232\231\211@\232\231\251@33\243@\232\231\231@33s@\232\231\231@\315\314\214@\232\231\231@\315\314\214@\315\314\314@33\303@\000\000\200@ff\206@\232\231\231@\315\314\234@\232\231\211@ff\226@ff\306@\232\231\001A\232\231\311@ff\366@\315\314\314@\232\231\311@33\203@\000\000\220@ff\246@33\203@ff\266@\315\314\314@33\203@ff\266@\315\314\234@33\263@\232\231\231@\315\314\214@\315\314l@33\203@\000\000\220@ff\306@\232\231\311@\315\314\334@\000\000\000Aff\306@\232\231\271@\000\000\300@33\323@33\263@\232\231\271@\232\231\251@33\343@33\263@\315\314\354@ff\306@\000\000\360@\000\000\220@ff\206@ff\306@33\363?\315\314,@\000\000`@ff&@\232\2319@333@\315\314l@\000\000@@\315\314,@\232\231\331?ff\006@\315\314,@fff@\315\314l@\000\000\220@\232\231\251@ff\206@\000\000`@\315\314L@\232\231Y@\232\231Y@33S@\315\314L@\232\231\211@\000\000@@ff\226@\232\231y@33\203@333@\232\231\031@\232\231y@33\223@\315\314\254@33\343@ff\266@\000\000\320@\000\000\000A\315\314\254@ff\306@33\243@33\223@33\263@\000\000\220@\315\314\254@\000\000\260@\000\000\320@\000\000\320@33\263@\232\231\271@ff\246@\232\231\271@33\343@33\343@\232\231\371@ff\006A\232\231\311@ff\366@33\343@ff\226@\000\000\220@\315\314\254@33\203@\232\231\251@\000\000\240@\000\000\260@\000\000\200@\232\231\311@ff\326@\000\000\260@\232\231\251@\315\314\214@\232\231Y@\232\231\231@33s@ff\226@\232\231\231@ff\246@33\263@ff\206@\000\000\260@33\243@\232\231\271@\000\000\320@\000\000\320@33\343@\232\231\351@\315\314\254@33\003A33\343@33\203@\000\000\200@ff\266@\232\231y@ffF@\315\314\214@\000\000\240@\000\000\200@ff\246@33\303@ff\206@\315\314L@33\363?ff\346?\232\231Y@333@\315\314,@\315\314,@\315\314l@\000\000`@\232\2319@\232\231Y@\315\314,@ff&@ff\226@33\243@\232\231\271@\315\314\234@\315\314l@33\363@\315\314\234@\232\231\031@\232\2319@\232\231\211@ff&@ff\326@33\023A33\003A\315\314\334@\000\000\240@\232\231\231@\315\314\354@\232\231\371@\000\000\340@\315\314\274@\000\000\300@\315\314\254@\232\231\271@\000\000\200@\315\314\214@\315\314\234@\232\231\211@\315\314\274@\232\231\371@\000\000 A\000\000\320@\232\231\251@\000\000\260@\232\231\331@\315\314\214@\232\231\271@\000\000\360@\232\231\251@\000\000\220@ff\306@\000\000\000A\232\231\311@\232\231\351@ff\346@33\263@\315\314l@\000\000 @\315\314\274@\315\314\274@\315\314\334@\000\000\320@\000\000\300@33\223@ff\226@\000\000`@\232\231\211@\315\314l@\232\231\211@\315\314\254@\000\000\300@\232\231\371@33\303@ff\206@\315\314\214@\000\000\220@\315\314L@\315\314\214@ff\246@33\203@\315\314l@ff\246@\315\314\334@ff\306@\315\314\374@\315\314\334@ff\306@\232\231y@33s@33\263@33\263@\000\000\300@33\263@\232\231\271@ff\246@33\263@33s@\000\000\220@33\223@\000\000\240@\315\314\254@ff\266@\315\314\354@\232\231\271@\232\231\231@\232\231\231@ff\226@33\203@\232\231\231@\232\231\251@\000\000\240@\315\314l@33\243@33\323@\232\231\001A33\323@\232\231\331?ff\206@ff\246@\315\314\254@33\303@33\243@ff\326@\232\231\271@33\363@\232\231\251@\232\231\231@\000\000\260@\232\231\211@ffF@ffF@ff\226@33\023@\232\231y@33\223@\315\314\254@33\243@\315\314\234@ffF@\232\231Y@fff@\232\231Y@33s@ff\206@\232\231\231@\232\231\311@\000\000\200@\232\231\331?\000\000\260@ff\246@ff\266@\232\231\231@ff\246@\000\000\340@\000\000\340@ff\366@\232\231\251@33s@ff\246@\000\000\220@\315\314L@\232\231Y@\315\314\214@\000\000\300?\232\231\271@33\243@ff\366@33\263@ff\226@\000\000\240@\315\314\234@ffF@333@\000\000\220@ff\006@\315\314\254@ff\306@\000\000\300@\315\314\314@ff\326@\232\231\351@\315\314\314@\315\314\234@33\243@fff@\000\000\200@\000\000\240@\232\231\231@\232\231\211@33\203@ff\006@333@\000\000\200@33s@33S@\000\000`@33\223@33\003A\000\000\000A\315\314\234@\232\231\031@ffF@33\023@\000\000 @\232\231Y@\232\231Y@\232\231\331?\315\314\334@\000\000\000A\000\000\360@\232\231\351@\000\000\360@ff\306@\000\000\300@\315\314\274@\315\314\234@\000\000\200@\000\000\320@\315\314\274@ff\006A\315\314\234@\000\000@@\232\231y@ff\246@33\263@ff\206@\232\231\271@\000\000\360@\000\000\010A\232\231\021A33\343@ff\266@\232\231y@\232\231\231@ff\226@\232\231y@\232\231\251@fff@\232\231\021A33\033A\315\314<A\315\314\024A33\013A\232\231\031A33#A\232\231\271@\315\314\334@\315\314\314@33\203@ff6Aff\346@33\243@ff\226@\315\314\254@\000\000\320@\000\000\240@\000\000\240@ff\006A33\033A\000\000 A\232\231\371@\232\231\311@\000\000\220@\000\000\320@\000\000\320@\000\000`@\000\000`@ff\206@33\203@33\243@fff@\232\231\031@ffF@fff@\232\231\231@\000\000`@ff\206@\315\314\314@\232\231\231@33s@333@ff\226@\315\314\374@\232\231\001A33\323@\232\231\251@33\243@33s@fff@\315\314,@ff\326@\315\314\214@ff\206@\315\314,@\000\000`@33S@\000\000`@\232\2319@\315\314,@ff\206@\232\231\311@33\223@\000\000 @\232\231\211@\232\231\211@33\223@ff&@ff\266@\000\000\240@\000\000\220@\315\314\214@\315\314L@33\243@\315\314\354@33\343@\315\314\274@33\203@\315\314\214@\000\000\200@\000\000\200@33\203@\315\314\274@33\303@33\263@\232\2319@\232\231\231@\000\000@@ffF@\000\000 @33\023@\000\000\220@\315\314\254@\000\000`@\232\231!A\000\000\260@\000\000\220@\000\000\200@ff\306@33\013A33\003A33\343@33s@\232\2319@\315\314\234@\232\231\211@\232\231\251@\315\314\314@33\303@\315\314\274@\000\000`@ff\246@ffF@33s@33\203@\232\231y@ff&@\000\000 @33\203@\232\231\231>ff\246?33\023@ff\246@\000\000\300?\232\231\311@\000\000\340@\232\231\231@33s@333@\315\314\334@\315\314\034Aff\006A33\343@\315\314\214@\232\231\211@ff\206@333@\000\000\300?\000\000`@33\263@\315\314l@fff?\315\314\014@333@\232\231\031@33\363?33\263?ff\206@33s@\000\000\200@\000\000\240@\232\231\211@\000\000\240@\232\231\211@\232\231Y@\315\314\214@\000\000`@\232\231Y@33\203@\232\231\231@ffF@33S@\232\231Y@33\363?\000\000`@\232\2319@33\203@ff\306@ff\026A\232\231\271@fff@\000\000\220@\000\000\200@\232\2319@\000\000 @33S@\232\231Y@33\223@33\303@ff\246@\000\000\300@\232\231\351@33\263@33\323@\000\000\340@33\243@\000\000\320@33\263@\232\231\271@\315\314\314@33\323@\232\231\211@\000\000`@ff\206@ffF@\000\000\200@\000\000\200@\315\314\314@ff\016Aff.A33\263@\000\000\200@\315\314\214@\000\000`@\315\314,@ff\206@33\223@\315\314\234@\000\000\260@33\323@\000\000\300@\000\000\300@\000\000\340@ff\246@\232\231\251@33\243@33\243@ff\266@ff\226@\000\000\260@33\263@\000\000\260@ff\006@333@ff\326@33S@\315\314L@\232\231\231@33\263@33\003A\000\000 A33\303@\000\000\220@\232\231\231@\000\000\220@fff@\232\231\211@\000\000\220@\232\231y@\315\314\234@ff\346?\315\314\314?\000\000\220@ffF@33\223@\232\231Y@33\023@ff\226@\000\000 @fff@33S@\000\000\220@\232\231\271@fff@ff&@\315\314\274@33\263?fff@ff&@\232\231y@ff\326@\000\000\020A\232\231\231@ff&@fff@33S@\000\000\300?33\263?\315\314L?\000\000\300?\000\000@@\315\314\314>\000\000\000\00033\263?fff?\000\000\200?\315\314\314>fff?\232\231\231>\000\000\000@33\023@\000\000\220@\232\231\211@33\303@333@33\243@\000\000\200@ff\206@333@33S@33\203@\000\000\240@\315\314\334@\000\000\260@333@333@ff\206@ff\246@ffF@\232\2319@ffF@ff&@\315\314l@33\243@ff\206@\232\231y@ff\226@\315\314l@\232\231\211@33\223@\000\000\320@\000\000\340@\315\314\334@\315\314\004A\232\231\351@\315\314\274@ff\266@33\263@\232\231y@\232\231Y@33\243@33\243@\000\000\240@\000\000\300@\315\314\334@fff@\000\000\220@\315\314\274@\315\314\274@\315\314L@33\203@333@\315\314\214@\232\231\211@\315\314l@\000\000\220@\232\231y@33\243@33S@33\223@\232\231\271@ff\266@33\343@\232\231\001A\000\000\320@33\263@\315\314\274@ff\226@\232\231\211@ffF@33\223@\000\000\220@\000\000\260@33\343@33\363@33s@\000\000`@33\263@ff\266@\315\314l@\232\231y@\000\000\000@\232\231y@33\203@\315\314L@ff&@33\363?\232\231Y@333@333@ff\206@\315\314\234@\315\314\314@\000\000\340@\000\000\000A\232\231\001A33s@\000\000@@ff\006A\315\314\234@\232\231Y@fff@\232\231\231@\000\000\240@\000\000\300@\000\000\030Aff\206@\315\314l@\232\231\211@\000\000\220@33S@\000\000\200@\315\314L@\232\231y@33s@\000\000\000@ff\346?ff\246?33\023@333@\000\000@@\315\314\214@\232\231\271@\232\231\331@\315\314\354@\000\000\020A33\003A\000\000\200@\315\314\214@\232\231\211@fff@33\263?33\023@\000\000\000@ff\226@33\263@33\323@\232\231Y@ff\006@\000\000\200@\232\231y@33S@33s@ff\346?\232\2319@\315\314,@33\203@\232\231Y@\315\314\214@\000\000\220@33\303@\315\314\254@33s@\000\000`@\000\000@@\315\314l@33S@\000\000\200@33\343@33\303@fff@ff\246@33\203@\232\231\231@\315\314l@ff\226@33\203@\315\314\234@\232\231y@ff&@33s@\232\231\211@\000\000\220@\232\231\211@\232\231\211@\000\000\240@\232\231\211@\315\314\214@\315\314l@33\243@\232\231\251@\000\000\320@33\243@\315\314\314@\315\314\234@ffF@ff\246@\232\231\211@ff\246@\232\231\271@\000\000\240@\000\000`@33\263@\000\000\220@\000\000\240@\232\231\231@\232\231\231@ff\226@\315\314\234@33S@33\023@\315\314l@\000\000\200@\232\231y@\315\314l@ff\226@33\263@\315\314\254@ff\346@\315\314\314@\315\314\334@\315\314\334@ff\366@ff\026A33\033A\315\314\034A\232\231\351@\315\314\274@ff\346@\000\000\360@\232\231!A\000\000\010A\315\314\254@\232\231\371@\315\314\274@\315\314\234@ff\346@33\003A33\303@\000\000\340@\315\314\274@\000\000\320@\000\000\340@\000\000\000A\315\314\014A\315\314\274@\315\314\274@\000\000\240@\000\000\200@33s@\232\231\231@33\263@\315\314\314@\315\314\354@ff\306@ff\326@\315\314\254@\315\314\214@\315\314\214@33\203@\000\000\260@\232\231\331@\315\314\334@33\203@\232\231\251@\315\314\234@\315\314l@\232\231\231@\315\314\214@\232\231\211@33\223@\000\000@@\315\314l@33\023@ff>A\232\231\231@\000\000`@\000\000\200@\000\000\220@33\363?ffF@ffF@\232\231\231@ff\266@\232\231\331@\315\314\254@33\243@\232\231y@33\263?33\263?333?ffF@\315\314\254@ff\226@fff@ffF@fff@33s@\000\000`@\232\2319@\315\314,@\232\231\331?ff&@33S@33S@33\303@ff\226@\232\231\211@\315\314\014@\315\314l@\000\000\360@\232\231\311@\315\314\214@33\223@\000\000\260@\315\314\234@\232\231\231@33\243@ff\266@ff\266@ff\246@33\303@\000\000\260@\315\314\254@\000\000\240@\315\314\354@\232\231\271@33\263@\232\231\331@\315\314\354@\315\314\334@\232\231\271@\232\231\271@\315\314\334@\000\000\260@\315\314\214@\315\314\234@33\243@\232\231\251@\232\231\231@33\223@33\363@\315\314\334@\000\000\240@33\243@33\223@\000\000\220@ff\266@\232\231\331@ff\246@\232\231\231@\315\314\274@\000\000\340@ffF@\232\231\211@\315\314\274@ff\266@\232\231\311@\000\000\260@\315\314\214@ff\326@\000\000\340@\315\314\254@ff\226@ff\246@ff\206@\000\000`@\000\000\240@\000\000\320@\232\231\331@33\303@fff@ff\346@\000\000\300@fff@\232\231\251@33\263@\315\314l@33\243@33\263@33\243@\232\231\251@\000\000\260@\232\231\331@ff\206@33\223@\232\231\271@\315\314\254@\232\231\311@ff\306@33s@\232\231\271@33\303@\315\314\214@33s@\315\314\234@ff\206@\232\231\211@33\203@\000\000\300@\000\000\260@\000\000\240@ff\226@\000\000\000A33\263@ff\226@\000\000\260@\232\231\251@\232\231\271@\000\000\220@ff\306@\315\314\274@ff\306@33\263@\232\231\311@33\303@\232\231\251@\000\000\320@33\303@\232\231\331@33\303@\232\231\251@33\323@33\303@\315\314\274@\232\231\251@ff\306@\315\314\214@ff\266@\000\000\200@33\223@\232\231\251@ff\226@\000\000\260@ff\366@\232\231\311@\000\000\300@\232\231\311@\232\231\311@\000\000\300@ff\366@\000\000\000Aff\326@\000\000\000A\000\000\320@\315\314\254@\232\231\251@ff\306@\000\000\000A\000\000\360@ff\366@\315\314\274@\315\314\314@\315\314\374@33\363@33\343@\232\231\351@\232\231\231@\315\314\274@33\223@33\263@\000\000\300@\000\000\240@\000\000\260@\000\000\260@33\263@\315\314\274@33\243@\000\000\220@ff\306@\000\000\300@\315\314\004A\232\231\371@33\343@\232\231\001A\000\000\340@\232\231\331@\315\314\274@\000\000\320@\315\314\354@\232\231\331@\232\231\371@\000\000\000A33\343@33\013Aff\366@33\303@\232\231\311@ff\346@\000\000\300@ff\246@33\243@\000\000\000A33\303@ff\306@\232\231Y@\232\231\031@\315\314l@\232\231Y@\232\2319@\315\314L@\000\000\240@ff\246@\000\000@@ff\326@\000\000\300@33\223@\232\231\251@\232\231\311@\000\000\300@\232\231\251@\315\314l@\315\314\214@\315\314l@\232\231Y@\000\000@@\000\000\300?\315\314\014@ff&@ff\006@\315\314L@\232\231y@33S@\232\231y@ff\226@\000\000\220@\232\231\231@33S@33\263@\232\231y@fff@\232\231y@\232\231\231@33\263@\315\314l@33\013A\000\000\360@33\343@\232\231\331@\232\231\001A\315\314\314@ff\306@\232\231\231@ff\246@33\203@\315\314\254@ff\226@fff@\315\314L@ffF@\232\231Y@\315\314\214@33\223@\232\231y@\000\000\260@\000\000\240@\232\231\271@\000\000\240@33s@\315\314\314@\315\314\234@\000\000\200@33\263@\000\000\300@\315\314\314@\000\000`@\315\314\334@\315\314\334@\232\231\271@\232\231\311@\315\314\274@\315\314\374@33\323@\000\000\240@\315\314\254@\315\314\254@\315\314\254@\000\000\220@\315\314L@\315\314,@\232\231y@\232\231\211@\315\314\274@\232\231Y@\315\314l@33\303@\315\314\274@ff\266@\000\000\320@\000\000\200@ff\326@\315\314l@33\203@\000\000\260@\232\231\311@ff\266@fff@ff\366@\315\314\334@33\003A\000\000\000A\315\314\334@33\343@33\303@\000\000\340@\232\231\311@\315\314\274@\232\231\251@ff\206@33s@\000\000\200@33\223@\315\314\234@\315\314\314@33s@33\223@\315\314l@33\223@ff\246@33\243@333@ffF@33\203@33S@ff\006@\232\231\271@\232\231\271@\315\314L@33\323@\232\231\231@\315\314\234@33\003A\315\314\334@\232\231\331@\315\314\254@\232\231\271@ff\266@\000\000\300@33S@\232\231\211@ff&@ff&@333@\232\231\031@333@33\023@\000\000 @\000\000`@33\223@33\203@\315\314\234@\000\000 @ff\206@fff@ff\006@ff&@\315\314l@\000\000`@33\363?\232\231\251@\232\231\211@\000\000\200@33\263@\000\000\360@\232\231\001A\315\314\334@ff\266@\000\000\260@\000\000`@ff\226@\000\000\200@\232\2319@33\023@ffF@\000\000 @\315\314l@ff\206@ff&@\232\231y@\315\314l@ff\206@\000\000\220@\232\231y@33\223@\232\231\231@\000\000`@fff@\315\314\274@33s@fff@\232\2319@fff@\000\000\220@\232\231\271@ff\206@\000\000\340@33\243@\000\000\000@\315\314L@\000\000 @33\023@\000\000\000@ffF@\000\000\300?33\023@\232\2319@ff&@\000\000 @\232\231Y@ff\246?\000\000\020A\315\314\334@\315\314\254@\232\231\251@33\263@33\303@\000\000\300@\315\314\274@\232\231\331@\315\314\234@ff\246@33S@\000\000\240@\232\231\271@33\363@\000\000\240@\000\000\340@\000\000\340@\232\2319@\000\000\220@fff@\315\314\214@\000\000\200@\232\231\251@\232\231Y@\315\314l@ffF@33S@\000\000\200@\000\000\220@ff\306@\315\314\374@33\033A\000\000\300@\315\314\274@\232\231\331@\315\314\334@\232\231\271@33\323@\315\314\004A33\243@ff\226@ff\226@\000\000\240@\315\314\254@ff\346@\000\000\220@ff\006A\232\231\331@\232\231\231@ff\226@\232\231y@\000\000\220@ffF@\315\314\214@\232\231\031@33S@fff@33S@fff@\315\314\214@ff\246@\000\000\300@33\323@33\303@33\243@ff\306@33\363@\232\231\331@\315\314\274@\315\314\004A\315\314\254@\232\231y@\232\231\211@\315\314\234@\315\314\234@ff\306@33s@\315\314\274@\315\314\254@ff\206@ff\206@\315\314l@\000\000@@\232\2319@\232\231\211@\315\314L@33\023@\000\000`@ffF@\232\231\231@\315\314l@33\223@\315\314\254@\000\000\260@\000\000\260@ff\266@\315\314\314@\000\000\320@\315\314\314@ff\226@\232\231\251@\315\314\254@\315\314l@\000\000\220@\000\000 @33\223@ff\326@33\203@33\363@\315\314\254@ff\006@\232\231y@\232\231Y@ff&@\315\314\314?\315\314l@\232\231\031@ff&@\315\314,@\000\000`@\000\000@@fff@\232\231\231@ff\246@\000\000\240@\315\314\254@33\323@\232\231\351@\000\000\340@ff\306@\315\314\234@ff\346@\000\000\200@33\243@\315\314\214@\315\314\254@\232\231\311@\232\231\311@ff\206@\232\231\371@\232\231\251@\315\314\014@\232\231\211@ff\206@33s@\315\314L@33\203@\000\000 @\000\000 @\232\231Y@33\023@ff\206@33\243@\232\231\251@\315\314\254@\232\231\311@\000\000@@333@33\363?\315\314,@\315\314,@33\243@33\243@\000\000\220@\315\314L@ff&@\315\314\014@ff\026Aff\266@33\223@\232\231\231@\000\000\220@\000\000\200@\000\000\200@\315\314\354@33\323@\232\231\231@\232\231\231@\000\000\240@\000\000\320@\000\000\240@\000\000\320@ff\246@\315\314,@\000\000 @ffF@\315\314\214@fff@\315\314\214@\232\231Y@33\203@\315\314\214@ff\266@\000\000\340@\000\000\220@33\223@\232\231y@\232\2319@\000\000(A\232\231\311@\000\000\300@33\243@ff\226@\000\000\240@33\263@ff\306@33\323@33\323@33\223@\000\000\340@33\343@\000\000\340@\000\000\000A33\363@\000\000\220@\000\000@@\315\314\214@33\323@\232\231\211@\232\231Y@\315\314L@ff\206@ff\246@\000\000\300@\000\000\340@ff\226@\000\000\200@\315\314L@33s@33;Aff\346@\232\231\271@ff\306@\232\231\231@\000\000\220@\315\314\214@33\003A\000\000\360@\315\314\314@ff\246@33\303@ff\346@33\323@33\363@\315\314\274@\232\231Y@fff@33\223@\315\314\234@\232\231\231@\000\000\200@\232\231Y@ff\226@33\263@33\263@ff\326@ff\226@\315\314\234@33\023@\315\314l@ff\026A\000\000\260@\315\314\314@ff\246@\232\231\271@\232\231\211@\232\231\231@33\003A\000\000\020Aff\326@33\243@33\323@\315\314\374@ff\366@ff\006A\000\000\360@ff\206@33S@\000\000\220@33\303@fff@33\203@\000\000@@ffF@ff\346?\315\314L@33\263@\232\231\231@\232\231y@333@33S@\000\000\000A\315\314\314@\000\000\240@\315\314\274@ff\246@\315\314\234@\315\314\234@\232\231!A33#Aff\326@\232\231\251@\315\314\374@\315\314\004Aff\016A33#A\232\231\001A\000\000 @333@33S@\000\000\260@ffF@\232\2319@33\023@\000\000@@\000\000\200@33\223@\315\314\314@\315\314L@\000\000\200@\000\000@@333@ff\036Aff\206@\315\314\214@\232\231\231@\315\314\214@33\203@ff\206@33\003A\000\000\010Aff\266@ff\226@33\363@\232\231\tA\000\000\360@\000\000\020A\315\314\354@\232\231\211@\232\2319@\315\314l@\315\314l@\000\000\300?ff\246?\232\231\031@ff\006@33\363?\000\000\300?ff\246?\000\000 @ff&@\000\000`@333@33S@fff@33\023@\232\231\231?ff\246?33\263?\315\314,@\315\314l@333@ff\246?\315\314\314?\000\000\200?33\363?33\363?ff\246?ff\246?33\263@\315\314\314@\000\000\000@\000\000\200?ff\206@\315\314L@ff\206@\000\000\220@\315\314\234@ff\206@33\203@33\223@\232\231y@\315\314\274@\232\231\231@\232\231\271@33\263@\232\231\251@ff\326@\000\000\220@33\203@\315\314\234@\000\000`@\315\314L@\315\314l@\232\231y@\232\2319@ff\206@33s@333@\315\314l@33\363@33\003A\232\231Y@33s@33\223@ff&@\000\000`@\000\000`@33\203@fff@fff@ffF@\315\314l@\232\231\311@\232\231\211@\232\231\271@33\263@\000\000\240@\000\000\200@\315\314L@\000\000 @\232\231\211@\232\231\231@33s@ffF@\000\000\220@\232\231Y@\232\231Y@\000\000@@\232\231\031@333@33\363@ff\016A\000\000@@\315\314L@fff@\315\314,@33s@\315\314l@fff@\315\314l@\000\000\000@33\023@\315\314L@\315\314\214@\315\314\214@\232\231\251@\232\231\251@fff@333@\315\314\014@\232\231\031@33S@\232\231\211@\232\231Y@\232\231\031@33S@\315\314\314?33S@33\023@\315\314\314?ff&@ff\306@ff\366@\000\000 @\315\314\014@ffF@\232\231\031@333@\315\314,@\232\2319@ffF@\000\000 @\315\314L@\232\231y@ff\266@ff\246@33\243@33\263@\000\000\320@\232\231\231@ff\006@fff@ff\226@\232\231\271@\000\000\200@\232\231\031@ff&@ffF@fff@\232\2319@\232\2319@ffF@ff\246@33\323@fff@fff@33S@ff\006@\000\000@@33S@\232\231Y@\000\000\000@\000\000@@\315\314,@33\203@ff\346@33\303@\000\000\300@\315\314\314@\000\000\240@ff\226@\232\231\031@ff&@\000\000\220@\232\231\211@fff@\315\314\014@ffF@33\363?\315\314L@\000\000 @ff\246?\232\231\331?ff\326@\315\314\314@\315\314\014@33\363?ff\306@ff\266@33\203@\315\314L@\315\314,@\315\314l@\000\000@@\000\000`@\000\000 @\232\2319@33\203@\315\314l@\232\231\251@\232\231Y@\232\2319@\315\314L@\000\000\000@\000\000\200@\000\000`@\315\314\014@\315\314l@33\023@\315\314\014@ff\346?33S@\232\231y@33\223@\000\000`@\000\000`@\315\314l@\315\314\314?33\323@\000\000\340@\000\000\260@\000\000\200@\232\231\211@ff\246@\315\314l@\232\231\231@\000\000@@\232\231\231@ff\226@\315\314\234@ff\266@\315\314\234@\315\314\214@\315\314\214@\232\231Y@\315\314\214@ff\246@\232\231\031@ff\226@\232\231Y@\232\231\231@333@ff\226@ff\226@ff\206@ff\246@ff\246@\000\000\300@ffF@\232\231\311@\315\314\234@33\203@\000\000@@\232\231\031@\232\231y@33s@\000\000@@\000\000 @\232\231Y@ff\266@ff\246@ff\266@\232\231y@ff\206@\315\314l@\232\2319@fff@ff\206@\315\314\014@33S@ffF@ffF@333@33\243@33\243@33\223@\000\000\220@33\223@\232\231\251@ff\006@\315\314\354@ff\266@\000\000\260@\315\314l@333@\232\231\211@33\203@\232\231y@\315\314l@ff\206@33\223@33\243@ff\246@\000\000\260@\000\000\240@ff\226@\000\000`@fff@\000\000\200@33\023@\232\231y@\315\314,@\000\000\000@33\023@\000\000\200@\315\314\254@33\263@\315\314\234@\000\000\200@\315\314l@ff\006@\315\314\004A\000\000\260@\000\000\220@\000\000`@ff\006@ff&@33\023@33\203@33\023@\232\231\031@ff\246@\315\314\314@\315\314\254@\232\231\211@ffF@\232\2319@\000\000\000@fff@ffF@33S@33s@\232\231\031@\000\000 @ffF@ffF@\315\314\274@ff\306@\315\314\334@ffF@\000\000@@\000\000 @\315\314\334@ff\366@\000\000\300@33\223@ffF@\315\314l@\315\314\214@\232\231\231@fff@33\223@33\303@33\303@33\363@33\243@\000\000\220@ff\206@33s@33\203@ff\206@\000\000@@\232\231\211@\315\314l@\315\314\214@33S@ff\306@\000\000\360@33\263@ff\306@\000\000\240@\232\231\251@ff\006@\315\314\014@\232\231\031@\000\000 @33\263?ff&@\232\231y@\000\000`@33S@\232\231\331?33\023@\000\000\000@\315\314\234@\000\000 @\000\000@@\232\231y@\315\314\254@33s@\315\314L@\315\314l@\315\314\234@ff\266@ff\266@ff\226@\000\000`@\232\231\031@\315\314\014@ff\006@\315\314\014@33\023@33\263?\232\231\031@\000\000\240@\000\000\200@\232\231\231@\232\231y@\232\231y@33\223@\000\000\240@\315\314\234@\000\000`@\232\231y@\000\000\200@\232\231\251@\000\000\220@\000\000\220@33\303@\232\231\tA33\263@\000\000\200@33\243@33\343@\232\231\331@ff\006A\000\000\300@\000\000\240@\232\231\251@\232\2319@33\203@\000\000\240@\232\2319@\000\000@@\232\231\251@\000\000\220@\000\000 @\000\000 @\000\000 @33s@33\263@33\243@\000\000\240@\315\314l@\232\2319@\315\314l@\000\000\260@\315\314l@\315\314L@\232\231\231@ff\326@\000\000\200@\315\314L@\315\314\214@\315\314\234@\315\314\314@33\263@\315\314\234@fff@\000\000`@33\023@\000\000\200@33s@333@ff&@\232\231\251@\315\314L@ff\006@33\223@\315\314\014@\315\314L@\315\314\214@\315\314l@\232\231y@\315\314\014@33S@ff\206@\232\231\211@ff&@\315\314\014@\232\231\231@\315\314\314@\232\231\211@\000\000`@fff@ff\246@\232\231\231@\315\314\214@ffF@\000\000 @\315\314l@\315\314\234@\315\314\314?\000\000\200?\232\2319@33\023@ff\346?33\263?\000\000 @33\203@\000\000\300@33\243@\232\231Y@33\023@\000\000\000@\000\000 @\000\000 @\000\000\000@\315\314\214?\315\314l@33\303@ff\306@33\263@33\243@ff\226@\315\314\234@\000\000\300@\315\314\274@ff\206@\315\314\234@\232\231Y@\000\000@@33\023@\000\000 @ff\006@33\363?\315\314L@\315\314L@33\263?\000\000\000@\315\314l@33\263@ff\306@\232\231\271@ffF@\232\2319@\315\314,@ff\246@\000\000 @333@ff\226@\000\000\320@ff\226@\000\000\240@\232\231\311@\315\314\354@\000\000\300@\315\314\274@ff\326@\232\231\231@ff\226@33\363?\232\231\211@33S@33\023@\000\000\300?\000\000\200@ff\206@ffF@\315\314L@ff\206@ff\366@\000\000\240@\000\000@@\000\000\000@333@\000\000\220@33\263@\000\000\260@\232\231y@\000\000\300?fff@33\363?\315\314l@\232\231\331?\315\314,@\232\231\031@333@fff@\315\314\314?\315\314,@fff@\315\314\314?33\023@\000\000 @ff\006@ffF@\315\314l@33\323@\000\000\300@\000\000\340@ff\206@\000\000 A33\303@ff\206@\232\231\251@\000\000\220@ff\326@\232\231\331@ff\366@\315\314l@\315\314,@\000\000\220@fff@\000\000\240@33\363?ff\246@\232\231y@33\223@\232\231\271@\232\231Y@\315\314\234@33\263@\315\314L@\000\000@@\315\314l@\315\314\214@ff\226@ff\226@\000\000\240@\000\000\220@\000\000\260@\000\000\220@\232\231\031Aff\266@\232\2319@\000\000\220@fff@ff\346@\000\000\360@\315\314\374@\315\314\274@\232\231\031@33S@\232\2319@fff@ff\246?33\203@33s@\000\000\200@fff@33\263?\000\000\240@\000\000\240@\315\314,@\000\000@@\000\000`@\315\314\014@33\203@\000\000\220@\232\231\331@\315\314\254@ff\346@\000\000\360@\232\231YA\315\314\274@\000\000\000@\000\000\200@\315\314,@\000\000\260@333@\000\000\240@ff\206@33\023@ff\306@333@\000\000\240@\000\000\000\000\315\314\214@333@\000\000\340@ff\326@\000\000\300@\232\231\251@\000\000 @\315\314l@33S@\232\231\331@\232\231y@\000\000@@\000\000@@\232\231\351@\000\000\020Aff\366@33S@\232\231Y@33\223@ffF@ffF@\315\314\314?ff&@\000\000 @\000\000\240@fff@ff\006@fff@ff\346?ff\346?ffF@\232\231\031@ff&@\315\314\214@\315\314l@\232\231\331@\232\231\251@ff\226@33s@\000\000\320@\315\314\354@ff\206@fff@\000\000\260@33\023Aff\006A33\013A\232\231\271@\315\314L@ff\206@33s@33\243@\232\231\031@ff\246@33\203@\232\231\231@\000\000\240@33\023@\232\231\231@\315\314\214@ffF@33S@ffF@\315\314L@ff\206@\315\314\234@ff\346@33\343@ff\346@\315\314\214@33+A33\323@\000\000\240@ff\306@ff\246@ff\016Aff\026A\232\371yD\232\371yD\232\371yD\232\371yD\232\371yD\232\371yD\232\371yD\232\371yD\232\371yD\232\371yD\232\371yD\232\371yD\232\371yD\232\371yD\232\371yD\232\371yD\232\371yD\232\371yD\232\371yD\232\371yDff\326@\315\314\234@\000\000\300@ff\306@\000\000\240@ff\226@33\243@\232\231\331@\232\231\331@\000\000\260@ffF@33\243@33\203@\315\314,@\232\231\211@\315\314\274@\315\314\214@ff\226@33s@\315\314\334@ff\306@\315\314\234@\000\000\300@33\223@fff@ff\266@\232\231Y@ff\266@ff\206@ff\306@ff\306@\000\000\220@\000\000@@\315\314l@\000\000`@\000\000 @33\363?\000\000`@\000\000`@33s@\000\000@@\232\231\331?\000\000@@ffF@\000\000 @333@333@33\363?33\023@\000\000\000@ffF@\232\2319@\000\000\000@\232\231\331?ff\006@\000\000\300?\315\314\314?33\263?\000\000@@\232\231\331?\000\000@@333@\232\231\331@\000\000\200@\000\000\240@\232\231y@\000\000`@\000\000@@\232\231y@ff\226@33\203@\232\231Y@\315\314,@\000\000`@\232\2319@33\023@\315\314L@\232\231Y@\000\000 @333@\000\000\200@\000\000\220@\000\000\200@33\023@33\023@33\023@\315\314\014@\232\231\031@\232\231\331?\232\231y@\000\000 @\000\000@@ff\206@\232\231\331@ff\266@ff\346@33\303@ff\206@33\223@ff\246@\315\314\314@\232\231\271@ff\206@\232\231y@ff\246@\232\231\211@33S@33\223@\232\231\231@\000\000\260@fff@33\303@ff\306@\000\000\260@33s@fff@\315\314l@\000\000@@\232\231\251@\000\000`@fff@\315\314\214@\232\231\231@33\223@\315\314\354@\315\314\254@\000\000\320@ff\246@\232\231\211@\000\000\200@\000\000\240@ff\266@\315\314\274@ff\226@ff\206@\232\231\231@\000\000\200@\000\000@@ff\226@\000\000`@fff@33S@\315\314\214@\000\000\260@\232\231\251@ff\206@\315\314l@fff@33S@\315\314l@\232\2319@33\263@\232\231Y@\232\231\231@\315\314\274@33\243@333@\315\314\004A\315\314\354@33s@\000\000`@\000\000\000\000\000\000\000\000ff\266@\232\231\251@\315\314l@\232\231\331?\000\000`@\315\314\234@fff@\232\2319@ff\226@\232\231\211@\232\231\031@\232\231\211@\315\314L@33\203@33\203@33\023@33\023@ff\006@ff\346?33S@\315\314,A33\343@\232\231\351@ff\326@ff\206@\315\314\214@ff\226@\232\231\271@\315\314\004A33\343@33\203@fff@ff\206@\315\314l@33\203@ff\226@\315\314\254@\232\231\211@ff\246@33\363@\000\000\300@ff\226@\232\231\211@\232\231y@\000\000@@33s@ff&@33s@\315\314l@333@\000\000\260@\232\231\031A\000\000\320@\000\000\360@\000\000\340@33\243@33\243@ff\266@\232\231\351@\315\314\374@\000\000\340@ff\246@\315\314\234@\232\231\211@fff@33\223@\000\000\260@\000\000\300@33\263@ff\226@33\323@ff\246@33s@\000\000\220@33s@\232\231\231@\000\000@@\315\314\214@\232\231\031@\000\000\200@33S@33\263@\232\231\231@ff\226@\000\000\200@\000\000\260@\000\000\260@\315\314\274@ff\266@\000\000\260@\232\231y@ff\206@33\203@\315\314\234@\232\231\231@ff\206@ff\266@\000\000`@\232\231\251@\315\314\274@\315\314\254@33\223@\232\231\251@\000\000\320@\315\314L@\232\231\231@\000\000\010Aff\346@\000\000\260@\232\231\251@\315\314\334@\315\314\254@\315\314,@333@\000\000\000@ff\006@\232\231Y@33S@\315\314l@\232\231y@33S@\232\231\031@\000\000\000@ff&@33S@33\263@33\203@\315\314\214@ff&@\232\231Y@\232\231\231@\232\231\311@33\263@33\223@\000\000\220@\315\314L@ff\246@\315\314\334@fff@\315\314L@\232\231\211@33\263@33\263@ff\246?\232\231\231?\000\000\300?\315\314\214?\000\000\200?ff\246?\000\000\300?\315\314\314?ff\246?ff\246?\315\314\314?ff\246?\000\000\300?\000\000\000@ff\246?ff&@333?\232\231\331?\000\000\000@\000\000\000@33\023@\000\000 @33\023@ff\246?\232\2319@\232\231Y@ffF@\315\314,@\232\231\331?33\263?\232\231\031@ff\346?\315\314\014@\315\314,@\232\231\331?\000\000 @\315\314L@\232\2319@33s@\232\231\031@\315\314\014@333@ff\006@\000\000 @\232\231y@\315\314L@333@33\263?33S@\315\314,@\315\314l@\232\231Y@fff@\000\000@@33s@\315\314l@\315\314\214@\000\000\200@\315\314l@\315\314l@ff\226@\232\231\031@\000\000@@\000\000`@\000\000`@\000\000@@33s@ff\226@\232\231\231@ff\206@\232\231y@\315\314L@\000\000`@\000\000`@\232\231y@\232\231\231@ffF@33\303@\000\000 @\000\000\240@\315\314\214@\000\000\260@ff\226@33\223@33\243@ffF@33\263@ff\346@ff\226@ff\206@33\303@\000\000\320@\232\231\231@\232\231\211@\000\000\200@\232\231Y@ffF@ff\246@\000\000\220@33\243@\315\314\234@\315\314\214@\000\000 @\000\000@@ff\206@33\223@ff\266@\000\000\240@ff\326@33\023@ff&@\232\231\031@\232\231\031@333@33\203@\315\314l@\000\000\200@\315\314\214@\232\2319@33\263?\232\231\031@33s@33s@\000\000\240@33\203@\232\231\271@\315\314L@ff\226@33\203@ff\226@\000\000`@ff\246@\315\314\234@\000\000`@33\203@\315\314\234@\315\314l@33S@ff\206@33\223@33\363?\232\231\211@\000\000\200@\232\231Y@ffF@ff\246@\000\000\220@33\243@\315\314\234@\315\314\214@\000\000 @\000\000@@ff\206@33\223@\232\231\271@\000\000\240@\232\231\331@\000\000`@\000\000\300@ff\266@\000\000\340@ff\266@"
      }
    }
  }
}
node {
  name: "ExpandDims_1/dim"
  op: "Const"
  attr {
    key: "_output_shapes"
    value {
      list {
        shape {
        }
      }
    }
  }
  attr {
    key: "dtype"
    value {
      type: DT_INT32
    }
  }
  attr {
    key: "value"
    value {
      tensor {
        dtype: DT_INT32
        tensor_shape {
        }
        int_val: -1
      }
    }
  }
}
node {
  name: "ExpandDims_1"
  op: "ExpandDims"
  input: "Const_1"
  input: "ExpandDims_1/dim"
  attr {
    key: "T"
    value {
      type: DT_FLOAT
    }
  }
  attr {
    key: "Tdim"
    value {
      type: DT_INT32
    }
  }
  attr {
    key: "_output_shapes"
    value {
      list {
        shape {
          dim {
            size: 3637
          }
          dim {
            size: 1
          }
        }
      }
    }
  }
}
node {
  name: "Const_2"
  op: "Const"
  attr {
    key: "_output_shapes"
    value {
      list {
        shape {
          dim {
            size: 3637
          }
        }
      }
    }
  }
  attr {
    key: "dtype"
    value {
      type: DT_FLOAT
    }
  }
  attr {
    key: "value"
    value {
      tensor {
        dtype: DT_FLOAT
        tensor_shape {
          dim {
            size: 3637
          }
        }
        tensor_content: "ff\036Aff\016A\000\000\230A\232\2311Aff\016A\000\000PA\232\231!A\000\000@A\232\2311A\232\231!Aff\016A\000\000@A\000\000PA\000\000PAff\036A\232\231!A\232\231!Aff\016Aff\016A\000\000\330Aff~A\000\000@A\232\231!A\232\231!A\315\314\220A\000\000@A\232\2311A\000\000PA\000\000@A\000\000\000A\000\000\340@\000\000\000A\000\000\340@\000\000pAff\036A\000\000\000Aff\016A\000\000\300@\000\000\000Aff\016A\000\000\340@\000\000\340@\000\000pA\000\000@A\000\000pAff\036Aff\036A\232\2311A\315\314\300A\315\314\210A\000\000PAff\036Aff\016A\315\314\310Aff\036A\000\000pA\232\2311Aff\036Aff\036A\000\000@A\000\000PA\000\000PA\000\000@A\000\000@Aff\016Aff\036A33\267Aff\016A\000\000pAff\036A\000\000\240Aff\016A\000\000pA\000\000pAff\016A\000\000\300@\000\000\000Aff\016Aff\016A\000\000pA33\203@\000\000@Aff\016Aff\016A\315\314\210A\000\000@Aff\036A\000\000\000Aff\016Aff\016A\000\000@A\000\000@A\000\000`Aff\036A\000\000@Aff\036Aff\036A\315\314\310A\232\2311Aff\036Aff\036A\000\000@Aff\016A\000\000@A\000\000@Aff\036A33\243@\000\000\340@ff\016A\232\2311A\232\2311A\232\2311A\000\000@A\000\000@A\232\2311A\000\000PA\232\231!A\000\000PA\232\231!A\000\000@A\000\000\340@\000\000pA\000\000\014B\000\000@A\232\231!Aff\016A\232\231!A\000\000\340@\000\000@Aff~A\000\000\230A\000\000\000A\000\000\000A\000\000@A\000\000\000A\000\000pA\232\231!A\000\000\340@\232\2311A\000\000@A\000\000@A\000\000\230A\000\000PA\000\000\240A\000\000PAff\036A\232\2311A\315\314\220A\000\000`A\000\000pAff\036Aff\016A\000\000PA\000\000`A\000\000@A\000\000@A\000\000@Aff\016A\000\000\300@\000\000pA\000\000\230A33\357A\315\314\220Aff\036A\000\000PA\000\000pA\315\314\220A\000\000PAff\036A\000\000@A\232\2311Aff\036Aff\016A\000\000@A\000\000`A\000\000@A\232\2311Aff\016A\000\000pA\232\2311A\232\2311Aff\036Aff\016A\000\000@A\000\000PA\000\000@Aff\036Aff\036A\000\000\000A33\243@ff\016A\315\314\220A\000\000@A\232\2311Aff\016Aff\016A\000\000`A\232\2311A\000\000\000A\000\000\300@ff\036A\000\000\340@\000\000pA33\243@ff\016A\000\000\240Aff\036Aff\016A\232\231!A\232\231!A\232\2311A\000\000@A\000\000pA\232\231!A\232\2311A\000\000`A\000\000PA\000\000@A\000\000@A\000\000`A\000\000@A\000\000@A\000\000@A\232\2311A\232\231!A\000\000pA\000\000@Aff\016A\232\231!A\000\000@A\000\000`A\000\000`A\000\000@A\000\000\000A\315\314\220A\000\000pA\000\000PA\000\000\000A\000\000\340@\000\000\300@\000\000\340@\000\000@A\000\000@A\000\000\000A\000\000@Aff~A\000\000PA\000\000@Aff\016A\232\2311Aff\036Aff\036A\000\000PAff\036Aff\036A\000\000\340@\000\000\000Aff\036A\000\000\000A\000\000\300@ff\016Aff\036A\000\000@Aff\036A\000\000pA\000\000`A\315\314\220A\000\000@A\000\000\000A\232\2311Aff\036A\000\000\000Aff\016Aff\036A\000\000`A\232\2311Aff~A\000\000\340@\000\000PA\000\000@A\000\000@A\232\2311Aff\036A\232\2311A\232\2311Aff\036A\000\000\000Aff\016A\000\000PA\000\000\340@\000\000\340@ff\036Aff\036A\000\000@A\000\000@A\000\000\000A\000\000@Aff\036Aff\036A\315\314\300A\315\314\300A\000\000\240A\232\231!A\000\000\000A\000\000PA\000\000@A\232\2311A\232\231!A\000\000@A\000\000PA\232\2311A\232\2311A\000\000@A\232\231!A\000\000@A\232\231!A\315\314\210Aff\016A\000\000`A\232\2311A\000\000PAff\016A\232\2311A\232\2311A\232\231!A\000\000PA\232\2311A\000\000pA\000\000@A\232\2311A\000\000pAff~A\232\2311A\000\000\300@33\243@\000\000`Aff\036Aff\036A\000\000\340@\000\000pA\000\000PA\000\000@Aff\016Aff\036A\000\000@Aff\036A\000\000\000A\315\314\220A\000\000\340@ff\036A\000\000\000Aff\036A\000\000\000A\000\000PA\000\000\000A\000\000\340@\000\000\000A\000\000\000A\315\314\210A\000\000@Aff\036A\000\000@A\000\000@A\000\000\340@\000\000@A\000\000\000A\000\000\340@\000\000\300@\000\000\000Aff\036A\000\000`A\000\000@A\232\2311Aff\036Aff\036A\000\000\000Aff\016A\000\000\300@\000\000\240A\000\000\300@\000\000\000A\000\000\000Aff\016A\232\2311A\000\000\000A\000\000\340@ff\016A\000\000@Aff\036A\000\000\240A\000\000`Aff\036A\000\000\340A\000\000\240A\000\000pA\000\000`A\000\000`A\232\2311A\000\000@A\000\000PA\232\2311Aff\016A\232\2311A\232\231!A\000\000PA\232\231!A\232\231!A\232\2311A\232\2311A\000\000`Aff~A\000\000PA\000\000@A\232\231!A\000\000`A\000\000`A\000\000`A\000\000PA\000\000@Aff~A\232\2311A\000\000@A\000\000@A\000\000\014Bff~A\000\000PA\000\000@A\000\000PAff\016A\000\000PA\000\000`Aff\036A\000\000\000A\000\000\340@ff\036Aff\036Aff\036Aff\036A\000\000@Aff\036Aff\036A\000\000pAff\036Aff\036A\000\000\000Aff\036A\232\2311Aff\036Aff\016A\000\000\000A\000\000\340@ff\036A\232\2311Aff\036A\000\000 